{"version":"1.0","truncation":null,"padding":null,"added_tokens":[{"id":0,"content":"<|pad|>","single_word":false,"lstrip":false,"rstrip":false,"normalized":false,"special":true},{"id":1,"content":"<|endoftext|>","single_word":false,"lstrip":false,"rstrip":false,"normalized":false,"special":true},{"id":2,"content":"<|im_start|>","single_word":false,"lstrip":false,"rstrip":false,"normalized":false,"special":true},{"id":3,"content":"<|im_sep|>","single_word":false,"lstrip":false,"rstrip":false,"normalized":false,"special":true},{"id":4,"content":"<|im_end|>","single_word":false,"lstrip":false,"rstrip":false,"normalized":false,"special":true},{"id":5,"content":"<|unk|>","single_word":false,"lstrip":false,"rstrip":false,"normalized":false,"special":true}],"normalizer":{"type":"Sequence","normalizers":[{"type":"Strip","strip_left":true,"strip_right":true},{"type":"NFC"}]},"pre_tokenizer":{"type":"ByteLevel","add_prefix_space":false,"trim_offsets":true,"use_regex":true},"post_processor":{"type":"ByteLevel","add_prefix_space":true,"trim_offsets":false,"use_regex":true},"decoder":{"type":"ByteLevel","add_prefix_space":true,"trim_offsets":true,"use_regex":true},"model":{"type":"BPE","dropout":null,"unk_token":"[UNK]","continuing_subword_prefix":null,"end_of_word_suffix":null,"fuse_unk":false,"byte_fallback":false,"ignore_merges":false,"vocab":{"<|pad|>":0,"<|endoftext|>":1,"<|im_start|>":2,"<|im_sep|>":3,"<|im_end|>":4,"<|unk|>":5,"!":6,"\"":7,"#":8,"$":9,"%":10,"&":11,"'":12,"(":13,")":14,"*":15,"+":16,",":17,"-":18,".":19,"/":20,"0":21,"1":22,"2":23,"3":24,"4":25,"5":26,"6":27,"7":28,"8":29,"9":30,":":31,";":32,"<":33,"=":34,">":35,"?":36,"@":37,"A":38,"B":39,"C":40,"D":41,"E":42,"F":43,"G":44,"H":45,"I":46,"J":47,"K":48,"L":49,"M":50,"N":51,"O":52,"P":53,"Q":54,"R":55,"S":56,"T":57,"U":58,"V":59,"W":60,"X":61,"Y":62,"Z":63,"[":64,"\\":65,"]":66,"^":67,"_":68,"`":69,"a":70,"b":71,"c":72,"d":73,"e":74,"f":75,"g":76,"h":77,"i":78,"j":79,"k":80,"l":81,"m":82,"n":83,"o":84,"p":85,"q":86,"r":87,"s":88,"t":89,"u":90,"v":91,"w":92,"x":93,"y":94,"z":95,"|":96,"}":97,"~":98,"¡":99,"¢":100,"£":101,"¤":102,"¥":103,"¦":104,"§":105,"¨":106,"©":107,"ª":108,"«":109,"¬":110,"®":111,"¯":112,"°":113,"±":114,"²":115,"³":116,"´":117,"µ":118,"¶":119,"·":120,"¸":121,"¹":122,"º":123,"»":124,"¼":125,"½":126,"¾":127,"¿":128,"Â":129,"Ã":130,"Ä":131,"Å":132,"Æ":133,"Ç":134,"È":135,"É":136,"Ê":137,"Ë":138,"Ì":139,"Í":140,"Î":141,"Ï":142,"Ð":143,"Ñ":144,"Ò":145,"Ó":146,"Ô":147,"Õ":148,"Ö":149,"×":150,"Ø":151,"Ù":152,"Ú":153,"Û":154,"Ü":155,"Ý":156,"Þ":157,"ß":158,"à":159,"á":160,"â":161,"ã":162,"ä":163,"å":164,"æ":165,"ç":166,"è":167,"é":168,"ê":169,"ë":170,"ì":171,"í":172,"ï":173,"ð":174,"ó":175,"ô":176,"ĉ":177,"Ċ":178,"Ġ":179,"Ģ":180,"ģ":181,"Ĥ":182,"ĥ":183,"Ħ":184,"ħ":185,"Ĩ":186,"ĩ":187,"Ī":188,"ī":189,"Ĭ":190,"ĭ":191,"Į":192,"į":193,"İ":194,"ı":195,"Ĳ":196,"ĳ":197,"Ĵ":198,"ĵ":199,"Ķ":200,"ķ":201,"ĸ":202,"Ĺ":203,"ĺ":204,"Ļ":205,"ļ":206,"Ľ":207,"ľ":208,"Ŀ":209,"ŀ":210,"Ł":211,"ł":212,"Ń":213,"Ġt":214,"Ġa":215,"he":216,"in":217,"re":218,"Ġthe":219,"on":220,"er":221,"at":222,"Ġo":223,"Ġs":224,"en":225,"Ġc":226,"es":227,"Ġw":228,"is":229,"nd":230,"it":231,"or":232,"Ġp":233,"al":234,"Ġb":235,"an":236,"ed":237,"Ġf":238,"Ġof":239,"ing":240,"Ġin":241,"ou":242,"ar":243,"Ġm":244,"Ġand":245,"Ġto":246,"ic":247,"Ġd":248,"ion":249,"le":250,"ro":251,"as":252,"Ġh":253,"ent":254,"Ġth":255,"ct":256,"Ġe":257,"il":258,"Ġre":259,"om":260,"ve":261,"Ġl":262,"st":263,"Ġn":264,"ly":265,"âĢ":266,"Ġbe":267,"Ġis":268,"ĠT":269,"se":270,"ol":271,"Ġg":272,"ation":273,"im":274,"id":275,"et":276,"ut":277,"ce":278,"ur":279,"ot":280,"ra":281,"ch":282,"ow":283,"Ġfor":284,"ig":285,"ĠA":286,"Ġu":287,"Ġthat":288,"Ġon":289,"ĠS":290,"Ġst":291,"ver":292,"Ġy":293,"ir":294,"ĠI":295,"ĠC":296,"ul":297,"ay":298,"am":299,"ith":300,"Ġas":301,"el":302,"Ġpro":303,"ad":304,"her":305,"Ġare":306,"Ġcon":307,"Ġwith":308,"Ġan":309,"Ġyou":310,"if":311,"Ġit":312,"Ġwh":313,"Ġor":314,"Ġal":315,"od":316,"ter":317,"ĠThe":318,"ĠM":319,"ment":320,"Ġ(":321,"ge":322,"th":323,"ĠP":324,"Ġ1":325,"op":326,"ate":327,"ist":328,"ers":329,"Ġde":330,"ess":331,"ies":332,"ab":333,"Ġhe":334,"ill":335,"Ġex":336,"Ġsu":337,"ĠB":338,"âĢĻ":339,"ect":340,"Ġcom":341,"ore":342,"Ġwe":343,"us":344,"ity":345,"res":346,"ive":347,"est":348,"Ġha":349,"ac":350,"um":351,"Ġv":352,"rom":353,"ĠH":354,"ld":355,"ke":356,"os":357,"ant":358,"qu":359,"iv":360,"em":361,"Ġby":362,"ain":363,"ĠW":364,"nt":365,"pp":366,"Ġcan":367,"Ġat":368,"igh":369,"ud":370,"ĠD":371,"Ġch":372,"Ġwas":373,"Ġfrom":374,"ĠE":375,"oc":376,"ort":377,"and":378,"Ġr":379,"Ġne":380,"ĠR":381,"ial":382,"Ġse":383,"ĠF":384,"ure":385,"Ġ2":386,"ĠâĢ":387,"un":388,"Ġle":389,"Ġnot":390,"ical":391,"art":392,"Ġhave":393,"ĠG":394,"ĠN":395,"ri":396,"Ġen":397,"og":398,"Ġsh":399,"ĠL":400,"Ġsp":401,"Ġthis":402,"pt":403,"ight":404,"Ġab":405,"rou":406,"Ġwor":407,"all":408,"ich":409,"red":410,"ions":411,"ther":412,"ost":413,"ould":414,"The":415,"our":416,"gh":417,"du":418,"ome":419,"Ġim":420,"00":421,"ated":422,"per":423,"Ġus":424,"ine":425,"Ġpl":426,"Ġtheir":427,"out":428,"ag":429,"ard":430,"act":431,"ff":432,"ide":433,"ell":434,"Ġint":435,"pl":436,"Ġyour":437,"ans":438,"ĠO":439,"ast":440,"age":441,"ear":442,"ak":443,"ust":444,"Ġwhich":445,"Ġwhe":446,"iz":447,"Ġk":448,"Ġthey":449,"ous":450,"ec":451,"ĠJ":452,"Ġad":453,"ood":454,"ult":455,"ĠU":456,"Ġall":457,"Ġinc":458,"Ġcont":459,"Ġwill":460,"ib":461,"cc":462,"end":463,"ĠIn":464,"ru":465,"Ġdis":466,"Ġcomp":467,"Ġmore":468,"Ġres":469,"âĢĿ":470,"ap":471,"ong":472,"ations":473,"vel":474,"ip":475,"Ġhas":476,"ia":477,"ere":478,"ew":479,"so":480,"orm":481,"Ġdo":482,"ater":483,"ary":484,"able":485,"are":486,"ĠTh":487,"ence":488,"ild":489,"Ġman":490,"ual":491,"Ġcl":492,"Ġother":493,"ks":494,"Ġbut":495,"ry":496,"Ġimp":497,"Ġwere":498,"ind":499,"ance":500,"Ġte":501,"ep":502,"ents":503,"Ġper":504,"Ġalso":505,"ach":506,"ĠâĢľ":507,"Ġme":508,"Ġone":509,"ign":510,"reat":511,"ake":512,"ose":513,"ress":514,"ass":515,"av":516,"ase":517,"'s":518,"au":519,"Ġso":520,"ition":521,"ction":522,"Ġj":523,"Ġout":524,"ice":525,"Ġun":526,"Ġapp":527,"Ġ19":528,"ime":529,"one":530,"ber":531,"very":532,"Ġar":533,"Ġpart":534,"Ġabout":535,"ace":536,"Ġstud":537,"Ġev":538,"ord":539,"ens":540,"ount":541,"ory":542,"ire":543,"ok":544,"Ġinf":545,"ish":546,"ack":547,"Ġwho":548,"Ġpe":549,"ĠSt":550,"ame":551,"Ġsy":552,"ors":553,"Ġcomm":554,"Ġthem":555,").":556,"ces":557,"ue":558,"Ġsc":559,"ike":560,"Ġhis":561,"ang":562,"ite":563,"ub":564,"Ġpre":565,"ound":566,"now":567,"ĠK":568,"ĠIt":569,"olog":570,"low":571,"ree":572,"Ġbec":573,"Ġmay":574,"Ġup":575,"ric":576,"iff":577,"ile":578,"Ġqu":579,"ie":580,"Ġthan":581,"ople":582,"Ġsome":583,"Ġrec":584,"ays":585,"Ġ\"":586,"nder":587,"ail":588,"Ġyear":589,"Ġwhen":590,"ates":591,"ĠCh":592,"ings":593,"Ġbeen":594,"Ġthere":595,"Ġits":596,"Ġinto":597,"Ġtra":598,"mer":599,"ian":600,"ren":601,"ĠThis":602,"Ġgo":603,"Ġwork":604,"Ġtime":605,"ough":606,"Ġover":607,"Ġ20":608,"Ġag":609,"Ġthese":610,"rit":611,"Ġdiff":612,"ph":613,"erv":614,"Ġhow":615,"Ġro":616,"Ġpeople":617,"vers":618,"ons":619,"rough":620,"ally":621,"lud":622,"te":623,"Ġcons":624,"ific":625,"ause":626,"Ġuse":627,"ĠV":628,"alth":629,"Ġcol":630,"Ġtr":631,"Ġour":632,"ms":633,"ond":634,"Ġra":635,"ll":636,"tern":637,"Ġbet":638,"Ġact":639,"ove":640,"ities":641,"we":642,"Ġlike":643,"Ġ3":644,"Ġhad":645,"int":646,"Ġmost":647,"Ġunder":648,"ys":649,"Ġknow":650,"ments":651,"Ġacc":652,"Ġsa":653,"lic":654,"ious":655,"ning":656,"Ġbl":657,"lect":658,"row":659,"irst":660,"les":661,"velop":662,"Ġdes":663,"ject":664,"ĠY":665,"Ġsuch":666,"Ġneed":667,"stem":668,"ook":669,"ffect":670,"Ġwould":671,"Ġnew":672,"Ġrel":673,"Ġhel":674,"Ġtw":675,"Ġif":676,"Ġrep":677,"ient":678,"Ġinclud":679,"cess":680,"Ġchild":681,"Ġhelp":682,"Ġany":683,"ob":684,"Ġgen":685,"ational":686,"ative":687,"ular":688,"ple":689,"ating":690,"ced":691,"Ġprodu":692,"Ġused":693,"yp":694,"Ġpr":695,"Ġprov":696,"hed":697,"Ġwhat":698,"Ġph":699,"Ġind":700,"Ġonly":701,"ov":702,"ool":703,"Ġdevelop":704,"Ġfe":705,"Ġoff":706,"Ġmany":707,"Ġam":708,"Ġthrough":709,"Ġno":710,"Ġspec":711,"Ġfirst":712,"Ġem":713,"ise":714,"iet":715,"round":716,"Ġac":717,"Ġreg":718,"ath":719,"uring":720,"oss":721,"ark":722,"fter":723,"ĠUn":724,"),":725,"ful":726,"ics":727,"Ġexp":728,"uc":729,"hen":730,"Ġsystem":731,"Ġdiffere":732,"ts":733,"Ġpo":734,"rib":735,"ility":736,"oth":737,"ne":738,"eth":739,"Ġtwo":740,"erm":741,"iss":742,"ink":743,"als":744,"rop":745,"Ġob":746,"old":747,"ied":748,"Ġdec":749,"Ġadd":750,"Ġass":751,"ible":752,"ased":753,"ten":754,"ange":755,"Ġatt":756,"ures":757,"ĠâĢĵ":758,"Ġsur":759,"Ġshould":760,"ower":761,"Ġwell":762,"ife":763,"Ġhealth":764,"ract":765,"In":766,"Ġsupp":767,"fore":768,"Ġwater":769,"ert":770,"ĠHe":771,"arch":772,"ble":773,"Ġfl":774,"Ġrem":775,"ween":776,"Ġinv":777,"Ġ201":778,"ram":779,"ng":780,"aw":781,"own":782,"Ġco":783,"Ġsub":784,"Ġyears":785,"gan":786,"its":787,"Ġsm":788,"sel":789,"Ġ-":790,"Ġbetween":791,"Ġhigh":792,"ade":793,"cy":794,"hes":795,"ution":796,"Ġcould":797,"ever":798,"Ġpres":799,"Ġ4":800,"Ġwhere":801,"ick":802,"Ġtrans":803,"Ġmake":804,"Ġimport":805,"chn":806,"ants":807,"ily":808,"form":809,"wn":810,"Ġget":811,"Ġbu":812,"Ġpers":813,"xt":814,"Ġ200":815,"ural":816,"ience":817,"uch":818,"ology":819,"Ġrese":820,"ĠAs":821,"ident":822,"Ġinter":823,"Ġ5":824,"chool":825,"ting":826,"Ġher":827,"Ġmod":828,"Ġear":829,"Ġinst":830,"Ġform":831,"Ġpol":832,"ited":833,"Ġnum":834,"ata":835,"ines":836,"Ġdisc":837,"Ġlear":838,"Ġexam":839,"ef":840,"Ġdifferent":841,"ness":842,"meric":843,"ins":844,"ivers":845,"Ġeffect":846,"Ġexper":847,"ont":848,"land":849,"Ġfound":850,"ists":851,"Ġsim":852,"Ġbecause":853,"hat":854,"Ġcar":855,"ict":856,"Ġlong":857,"gy":858,"ually":859,"Ġworld":860,"Ġmed":861,"Ġincre":862,"Ġafter":863,"Ġeven":864,"Ġlar":865,"oy":866,"aking":867,"ature":868,"Ġjust":869,"cept":870,"Ġway":871,"ft":872,"Ġdet":873,"Ġsign":874,"Ġthen":875,"Ġtyp":876,"ism":877,"Ġvery":878,"Ġinform":879,"Ġcent":880,"get":881,"Ġresp":882,"Ġed":883,"Ġhum":884,"vent":885,"Ġvar":886,"Ġcount":887,"Ġke":888,"urn":889,"other":890,"ically":891,"Ġsee":892,"ives":893,"Ġgener":894,"ck":895,"ĠAmeric":896,"Ġref":897,"Ġthose":898,"Ġpat":899,"ollow":900,"Ġprocess":901,"Ġ18":902,"Ġprog":903,"iew":904,"arm":905,"Ġext":906,"Ġsoc":907,"Ġresult":908,"Ġevery":909,"cer":910,"ases":911,"ues":912,"Ġfact":913,"ros":914,"iron":915,"Ġchildren":916,"ps":917,"Ġtechn":918,"Ġpub":919,"omm":920,"Ġimportant":921,"Ġloc":922,"Ġbeing":923,"Ġeach":924,"Ġca":925,"Ġsec":926,"Ġsaid":927,"led":928,"Ġrequ":929,"Ġcall":930,"ds":931,"Ġgra":932,"ruct":933,"Ġcommun":934,".âĢĿ":935,"ages":936,"ody":937,"Ġpartic":938,"ork":939,"Ġlife":940,"Th":941,"Ġdist":942,"tle":943,"Ġset":944,"Ġcre":945,"Ġmon":946,"Ġart":947,"ĠAl":948,"Ġduring":949,"Ġdep":950,"ices":951,"ĠWe":952,"io":953,"ized":954,"Ġmuch":955,"ved":956,"ather":957,"Ġent":958,"Ġlead":959,"Ġfood":960,"Ġsk":961,"Ġfam":962,"Ġshe":963,"ĠThey":964,"Ġstudents":965,"Ġlevel":966,"Ġdef":967,"ward":968,"Ġown":969,"Ġinformation":970,"Ġdata":971,"vern":972,"imes":973,"Ġread":974,"Ġfollow":975,"cent":976,"ize":977,"Ġmy":978,"Ġgrow":979,"Ġaut":980,"ĠPro":981,"gg":982,"..":983,"Ġright":984,"ection":985,"Ġstudy":986,"Ġdoes":987,"Ġmade":988,"Ġsame":989,"Ġperson":990,"ĠRe":991,"Ġav":992,"any":993,"Ġproble":994,"Ġfind":995,"hip":996,"Ġstr":997,"Ġgood":998,"Ġcur":999,"Ġins":1000,"Ġ6":1001,"Ġmin":1002,"viron":1003,"ĠIf":1004,"ality":1005,"stand":1006,"Ġback":1007,"Ġboth":1008,"Ġend":1009,"Ġdi":1010,"Ġusing":1011,"Ġschool":1012,"ted":1013,"Ġche":1014,"onom":1015,"ential":1016,"Ġexpl":1017,"ivid":1018,"the":1019,"ale":1020,"Ġcomple":1021,"Ġpop":1022,"ĠFor":1023,"ĠAn":1024,".,":1025,"und":1026,"Ġmain":1027,"Ġshow":1028,"Ġbefore":1029,"Ġhist":1030,"read":1031,"Ġgrou":1032,"Ġtest":1033,"Ġgl":1034,"ĠHow":1035,"Ġcor":1036,"Ġsmall":1037,"Ġtreat":1038,"Ġoften":1039,"20":1040,"iel":1041,"Ġval":1042,"Ġsol":1043,"19":1044,"ock":1045,"ĠAr":1046,"Ġbo":1047,"Ġprot":1048,"iversity":1049,"ined":1050,"Ġwhile":1051,"ergy":1052,"ien":1053,"inal":1054,"Ġagain":1055,"Ġbr":1056,"ince":1057,"imate":1058,"Ġless":1059,"rol":1060,"omen":1061,"||":1062,"Ġtake":1063,"Ġposs":1064,"Ġdise":1065,"ars":1066,"ty":1067,"nce":1068,"ix":1069,"ĠInd":1070,"der":1071,"ex":1072,"Ġris":1073,"Ġday":1074,"ute":1075,"Ġserv":1076,"vironment":1077,"ax":1078,"dition":1079,"Ġprovid":1080,"akes":1081,"Ġpower":1082,"Ġec":1083,"Ġstate":1084,"Ġlit":1085,"000":1086,"iqu":1087,"Ġocc":1088,"ished":1089,"Ġresearch":1090,"Ġorgan":1091,"Ġredu":1092,"ĠSp":1093,"Ġnumber":1094,"Ġnow":1095,"Ġfun":1096,"Ġactiv":1097,"Ġvis":1098,"Ġdesign":1099,"Ġbody":1100,"iety":1101,"ier":1102,"ral":1103,"ulation":1104,"Ġsupport":1105,"Ġmem":1106,"Ġhand":1107,"oh":1108,"ĠNew":1109,"ves":1110,"irect":1111,"Ġhuman":1112,"Ġhim":1113,"Ġaround":1114,"iving":1115,"Ġchar":1116,"Ġcell":1117,"up":1118,"Ġbel":1119,"ury":1120,"Ġclass":1121,"ĠSc":1122,"air":1123,"ital":1124,"Ġ10":1125,"Ġdown":1126,"Ġcommon":1127,"ered":1128,"Ġmust":1129,"ters":1130,"Ġcle":1131,"Ġthree":1132,"ger":1133,"Ġlook":1134,"hers":1135,"Ġstart":1136,"Ġconf":1137,"ah":1138,"ven":1139,"ving":1140,"ium":1141,"Ġelect":1142,"Ġest":1143,"uss":1144,"Ġcare":1145,"rent":1146,"day":1147,"Ġplan":1148,"ave":1149,"Ġpoint":1150,"aj":1151,"Ġgreat":1152,"This":1153,"ains":1154,"acter":1155,"Ġser":1156,"Ġgovern":1157,"Ġ7":1158,"cl":1159,"ional":1160,"âĢĶ":1161,"ross":1162,"Ġland":1163,"Ġexample":1164,"Ġlarge":1165,"ĠBut":1166,"Ġunderstand":1167,"Ġallow":1168,",âĢĿ":1169,"itions":1170,"Ġcontin":1171,"Ġincluding":1172,"rain":1173,"self":1174,"gen":1175,"Ġreport":1176,"Ġdid":1177,"anc":1178,"ĠYou":1179,"ouse":1180,"Ġadv":1181,"ron":1182,"Ġop":1183,"ared":1184,"eg":1185,"ividual":1186,"Ġequ":1187,"ull":1188,"Ġeduc":1189,"Ġpract":1190,"com":1191,"orn":1192,"Ġ8":1193,"Ġconst":1194,"ee":1195,"Ġbuild":1196,"ially":1197,"Ġmet":1198,"ash":1199,"ĠThere":1200,"esp":1201,"way":1202,"aterial":1203,"Ġthough":1204,"Ġdr":1205,"Ġwrit":1206,"Ġret":1207,"Ġbeh":1208,"ner":1209,"Ġknown":1210,"els":1211,"Ġcour":1212,"iven":1213,"ĠAnd":1214,"ĠIs":1215,"ĠâĢĺ":1216,"Ġeas":1217,"âĢĵ":1218,"oms":1219,"iver":1220,"Ġsom":1221,"Ġstill":1222,"outh":1223,"Ġpublic":1224,"Ġgu":1225,"ired":1226,"10":1227,"ids":1228,"Ġcalled":1229,"ries":1230,"iod":1231,"itive":1232,"ĠThese":1233,"Ġappro":1234,"reen":1235,"Ġplace":1236,"ering":1237,"oci":1238,"ected":1239,"Ġenvironment":1240,"Ġmight":1241,"Ġquest":1242,"inc":1243,"Ġindividual":1244,"ization":1245,"Ġide":1246,"eng":1247,"Ġthink":1248,"ources":1249,"erest":1250,"osed":1251,"Ġenergy":1252,"Ġfew":1253,"Ġtem":1254,"ĠWh":1255,"ination":1256,"Ġ9":1257,"Ġimpro":1258,"Ġmat":1259,"Ġcaus":1260,"âĢľ":1261,"de":1262,"Ġproduct":1263,"Ġchang":1264,"Ġstand":1265,"ffic":1266,"Ġpot":1267,"Ġwithin":1268,"ank":1269,"ption":1270,"Ġpresent":1271,"Ġpur":1272,"Ġsym":1273,"Ġdem":1274,"Ġchange":1275,"lish":1276,"Ġiss":1277,"Ġwithout":1278,"ration":1279,"Ġwant":1280,"bers":1281,"ense":1282,"Ġdevelopment":1283,".\"":1284,"Ġben":1285,"raph":1286,"Ġphys":1287,"Ġprof":1288,"ording":1289,"Ġmaterial":1290,"Ġplay":1291,"ethod":1292,"ets":1293,"ertain":1294,"oun":1295,"Ġlight":1296,"Ġimm":1297,"angu":1298,"Ġlearn":1299,"ason":1300,"ior":1301,"Ġident":1302,"Ġproject":1303,"Ġair":1304,"me":1305,"line":1306,"Ġcap":1307,"agn":1308,"ability":1309,"iness":1310,"tt":1311,"ived":1312,"ĠEng":1313,"Ġve":1314,"Ġbre":1315,"Ġeng":1316,"Ġdisease":1317,"sp":1318,"less":1319,"Ġpos":1320,"ental":1321,"Ġdon":1322,"arent":1323,"Ġsocial":1324,"ĠDe":1325,"Ġdirect":1326,"Ġ199":1327,"alk":1328,"man":1329,"Ġsit":1330,"Ġsl":1331,"Ġarea":1332,"Ġmeas":1333,"bs":1334,"Ġpass":1335,"ĠUniversity":1336,"Ġinclude":1337,"Ġbest":1338,"eral":1339,"ĠAmerican":1340,"Ġanother":1341,"ify":1342,"Ġhome":1343,"Ġcult":1344,"Ġbelie":1345,"ield":1346,"Ġrisk":1347,"Ġwomen":1348,"ton":1349,"erc":1350,"illion":1351,"Ġanal":1352,"Ġpain":1353,"It":1354,"atural":1355,"Ġmus":1356,"ological":1357,"ified":1358,"Ġ&":1359,"ians":1360,"Ġant":1361,"Ġmark":1362,"orth":1363,"Ġblood":1364,"Ġlaw":1365,"rodu":1366,"Ġinterest":1367,"ajor":1368,"ccess":1369,"ĠAd":1370,"ris":1371,"Ġcontrol":1372,"ining":1373,"Ġet":1374,"Ġopp":1375,"Ġbas":1376,"ug":1377,"ĠCon":1378,"Ġbecome":1379,"Ġproper":1380,"ently":1381,"ĠHowever":1382,"ained":1383,"atic":1384,"Ġrest":1385,"ats":1386,"Ġsever":1387,"Ġbetter":1388,"ills":1389,"Ġlow":1390,"Ġmethod":1391,"ource":1392,"Ġprovide":1393,"ider":1394,"Ġdesc":1395,"Ġkeep":1396,"Ġanim":1397,"Ġeconom":1398,"ways":1399,"Ġearly":1400,"ware":1401,"az":1402,"Ġprogram":1403,"Ġleg":1404,"Ġold":1405,"'t":1406,"ients":1407,"Ġmove":1408,"ision":1409,"arc":1410,"hor":1411,"Ġreal":1412,"ern":1413,"here":1414,"Ġtre":1415,"rap":1416,"Ġgovernment":1417,"Ġagainst":1418,"Ġcause":1419,"gin":1420,"ik":1421,"Ġpar":1422,"ĠSh":1423,"Ġoper":1424,"Ġhere":1425,"to":1426,"ĠPh":1427,"Ġsaf":1428,"Ġmil":1429,"eed":1430,"Ġfore":1431,"Ġperform":1432,"Ġavail":1433,"Ġtoo":1434,"lished":1435,"str":1436,"Ġindu":1437,"ention":1438,"Ġlast":1439,"Ġwar":1440,"Ġinfl":1441,"Ġmeans":1442,"Ġlearning":1443,"rist":1444,"ead":1445,"Ġhistory":1446,"Ġsecond":1447,"Ġele":1448,"Ġoccur":1449,"Ġorder":1450,"Ġdev":1451,"Ġsignific":1452,"Ġbenef":1453,"ards":1454,"ories":1455,"icle":1456,"Ġinvol":1457,"ission":1458,"Ġparticular":1459,"Ġfamily":1460,"Ġter":1461,"Ġgroup":1462,"Ġtop":1463,"Ġmajor":1464,"Ġaddition":1465,"ples":1466,"oid":1467,"Ġpossible":1468,"view":1469,"Ġseveral":1470,"Ġcurrent":1471,"amp":1472,"Ġfin":1473,"Ġlangu":1474,"Ġperiod":1475,"ĠRes":1476,"Ġprom":1477,"Ġhig":1478,"ĠWhen":1479,"ĠCl":1480,"use":1481,"ĠEx":1482,"Ġplant":1483,"Ġspecies":1484,"Ġbus":1485,"ĠUnited":1486,"Ġmean":1487,"Ġunt":1488,"Ġable":1489,"Ġsay":1490,"par":1491,"ogn":1492,"Ġnear":1493,"Ġcost":1494,"irc":1495,"Ġaffect":1496,"ograph":1497,"ote":1498,"ĠâĢĶ":1499,"Ġfeel":1500,"Ġhapp":1501,"Ġcal":1502,"Ġlim":1503,"Ġorig":1504,"ina":1505,"idence":1506,"Ġpercent":1507,"Ġareas":1508,"Ġ15":1509,"Ġmen":1510,"ĠGod":1511,"ĠCol":1512,"Ġopen":1513,"Ġprevent":1514,"Ġnon":1515,"Ġthings":1516,"Ġtreatment":1517,"Ġel":1518,"ator":1519,"Ġothers":1520,"Ġamong":1521,"Ġscient":1522,"Ġsince":1523,"ĠTo":1524,"sy":1525,"ĠPl":1526,"cing":1527,"ilar":1528,"ret":1529,"urop":1530,"ling":1531,"ane":1532,"osp":1533,"Ġ[":1534,"Ġmar":1535,"Ġaccess":1536,"port":1537,"What":1538,"ended":1539,"Ġ.":1540,"ocus":1541,"Ġdel":1542,"Ġavailable":1543,"Ġbased":1544,"ends":1545,"Ġcond":1546,"though":1547,"Ġess":1548,"Ġfac":1549,"Ġcountry":1550,"ances":1551,"elf":1552,"ots":1553,"Ġsays":1554,"Ġfre":1555,"ĠQ":1556,"ĠCan":1557,"omp":1558,"urther":1559,"Ġfollowing":1560,"Ġtimes":1561,"ĠSe":1562,"Ġhead":1563,"ole":1564,"ĠZ":1565,"ploy":1566,"of":1567,"sc":1568,"Ġname":1569,"ames":1570,"Ġfour":1571,"Ġconn":1572,"Ġcome":1573,"Ġcertain":1574,"ĠStates":1575,"Ġimpact":1576,"Ġcase":1577,"Ġcreat":1578,"be":1579,"Ġnatural":1580,"ĠComm":1581,"Ġwee":1582,"ably":1583,"Ġmonth":1584,"Ġstruct":1585,"Ġsignificant":1586,"Ġage":1587,"Ġproblem":1588,"Ġlo":1589,"une":1590,"Ġfree":1591,"abor":1592,"We":1593,"Ġpost":1594,"Ġtype":1595,"Ġrun":1596,"Ġlevels":1597,"Ġsuccess":1598,"Ġpress":1599,"ised":1600,"ĠAt":1601,",\"":1602,"Ġrece":1603,"ww":1604,"Ġobject":1605,"aper":1606,"ression":1607,"Ġlist":1608,"oint":1609,"Ġlocal":1610,"Ġgr":1611,"Ġproblems":1612,"ones":1613,"icult":1614,"Ġbi":1615,"Ġmaking":1616,"Ġview":1617,"olution":1618,"hy":1619,"If":1620,"br":1621,"Ġintern":1622,"Ġput":1623,"Ġamount":1624,"Ġassoci":1625,"Ġhard":1626,"urope":1627,"ope":1628,"Ġbro":1629,"ĠEn":1630,"work":1631,"Ġlittle":1632,"Ġbir":1633,"Ġdue":1634,"Ġ17":1635,"Ġvol":1636,"Ġmult":1637,"Ġflow":1638,"ggest":1639,"As":1640,"ortun":1641,"por":1642,"Ġpotential":1643,"uture":1644,"ring":1645,"Ġlet":1646,"Ġ12":1647,"Ġcho":1648,"resent":1649,"ledge":1650,"Ġfocus":1651,"ication":1652,"atory":1653,"Ġcells":1654,"Ġyoung":1655,"ething":1656,"Ġfar":1657,"Ġvir":1658,"ately":1659,"agement":1660,"ĠCent":1661,"Ġinvest":1662,"ĠTe":1663,"Ġsw":1664,"over":1665,"Ġbook":1666,"ides":1667,"Ġbehav":1668,"ĠAf":1669,"Ġuntil":1670,"Ġsystems":1671,"Ġsuggest":1672,"Ġcomput":1673,"Ġshort":1674,"Ġdeterm":1675,"Ġturn":1676,"ĠNational":1677,"oks":1678,"ged":1679,"Ġfunction":1680,"ured":1681,"Ġlater":1682,"12":1683,"Ġgiven":1684,"ither":1685,"pect":1686,"Ġeducation":1687,"Ġhy":1688,"not":1689,"stit":1690,"18":1691,"ĠBe":1692,"ĠEurope":1693,"ĠChrist":1694,"cle":1695,"Ġlikely":1696,"Ġheart":1697,"Ġdays":1698,"Ġtechnology":1699,"Ġrad":1700,"Ġcomb":1701,"aken":1702,"Ġcommunity":1703,"aps":1704,"Ġspecific":1705,"Ġcirc":1706,"Ġincrease":1707,"Ġseem":1708,"hem":1709,"Ġcreate":1710,"ending":1711,"face":1712,"Ġpolit":1713,"Ġfil":1714,"Ġeffective":1715,"ĠWhat":1716,"Ġlanguage":1717,"Ġalong":1718,"Ġobs":1719,"__":1720,"ĠOr":1721,"Ġexperience":1722,"Ġvarious":1723,"Ġresults":1724,"Ġconsum":1725,"Ġenc":1726,"Ġtemper":1727,"Ġ0":1728,"Ġsomething":1729,"ecially":1730,"ĠUS":1731,"ĠWor":1732,"Ġappear":1733,"Ġalways":1734,"Ġdifficult":1735,"Ġneeds":1736,"Ġcourse":1737,"Ġrele":1738,"ĠFr":1739,"Ġconditions":1740,"ried":1741,"ape":1742,"aster":1743,"Ġdra":1744,"Ġusually":1745,"Ġteac":1746,"vious":1747,"ĠOn":1748,"Ġdeath":1749,"ptoms":1750,"asing":1751,"ators":1752,"pr":1753,"Ġclear":1754,"ember":1755,"Ġpast":1756,"ĠAll":1757,"Ġsing":1758,"aining":1759,"Ġprofess":1760,"Ġgive":1761,"Ġfuture":1762,"Ġspace":1763,"Ġsimilar":1764,"Ġtoday":1765,"af":1766,"How":1767,"Ġparent":1768,"Ġapplic":1769,"isc":1770,"Ġcharacter":1771,"Ġcrit":1772,"etic":1773,"especially":1774,"There":1775,"Ġauthor":1776,"Ġnecess":1777,"Ġey":1778,"ĠSo":1779,"ohn":1780,"ours":1781,"ned":1782,"Ġdam":1783,"Ġimprove":1784,"Ġexist":1785,"Ġcancer":1786,"ique":1787,"Ġill":1788,"obal":1789,"Ġwords":1790,"ribut":1791,"Ġwhy":1792,"Ġhigher":1793,"Ġdiscuss":1794,"app":1795,"Ġbrain":1796,"ĠBl":1797,"ilities":1798,"Ġrecord":1799,"Ġspecial":1800,"Ġrequire":1801,"Ġbusiness":1802,"ored":1803,"Ġacross":1804,"Ġ16":1805,"iation":1806,"Ġpopulation":1807,"Ġ$":1808,"Ġchanges":1809,"min":1810,"Ġtool":1811,"Ġline":1812,"Ġcentury":1813,"Ġmillion":1814,"50":1815,"Ġworks":1816,"Ġer":1817,"orts":1818,"ateg":1819,"Ġstrong":1820,"idd":1821,"ruction":1822,"Ġrespons":1823,"Ġnext":1824,"Ġcr":1825,"11":1826,"Ġtoget":1827,"Ġtogether":1828,"Ġcountries":1829,"Ġbegin":1830,"ĠMed":1831,"mit":1832,"Ġabove":1833,"ler":1834,"Ġplants":1835,"Ġdescrib":1836,"Ġtry":1837,"Ġgre":1838,"rug":1839,"St":1840,"ox":1841,"Ġens":1842,"Ġprop":1843,"ĠAfric":1844,"atch":1845,"Ġworking":1846,"Ġleast":1847,"Ġside":1848,"oney":1849,"Ġcy":1850,"Ġhowever":1851,"Ġmov":1852,"Ġ'":1853,"Ġestab":1854,"aves":1855,"most":1856,"Ġask":1857,"selves":1858,"ray":1859,"Ġpatients":1860,"Ġways":1861,"ode":1862,"omes":1863,"Ġeffects":1864,"acy":1865,"Ġsens":1866,"Ġcomplete":1867,"Ġespecially":1868,"aces":1869,"ysis":1870,"Ġmot":1871,"Ġteam":1872,"Ġkey":1873,"Ġaway":1874,"Ġnever":1875,"Ġkind":1876,"ĠBrit":1877,"Ġconsider":1878,"Ġresearc":1879,"nal":1880,"ĠEar":1881,"Ġleft":1882,"amm":1883,"Ġenough":1884,"Ġnet":1885,"Ġtru":1886,"Ġopt":1887,"Ġrole":1888,"ires":1889,"Ġcolle":1890,"by":1891,"Ġchem":1892,"lement":1893,"Ġprim":1894,"oot":1895,"sw":1896,"Ġtypes":1897,"for":1898,"Ġcases":1899,"chie":1900,"Ġterm":1901,"Ġchall":1902,"Ġinflu":1903,"iting":1904,"ym":1905,"aching":1906,"Ġrelations":1907,"ilt":1908,"Ġstep":1909,"thing":1910,"Ġstudies":1911,"Ġknowledge":1912,"aring":1913,"Ġprotect":1914,"Ġhaving":1915,"Ġsymptoms":1916,"Ġgeneral":1917,"Ġsubject":1918,"duct":1919,"Ġphysical":1920,"ales":1921,"let":1922,"Ġfull":1923,"Ġmind":1924,"Ġgoing":1925,"Ġlower":1926,"side":1927,"alf":1928,"hing":1929,"ges":1930,"Ġaccount":1931,"Ġself":1932,"Ġconcer":1933,"Ġwhether":1934,"ument":1935,"istic":1936,"ipp":1937,"itor":1938,"apt":1939,"acc":1940,"Ġfurther":1941,"ĠSome":1942,"atures":1943,"Ġproduction":1944,"Ġnorm":1945,"ables":1946,"oman":1947,"An":1948,"Ġdig":1949,"Ġpred":1950,"Ġrepresent":1951,"Ġnut":1952,"Ġz":1953,"Ġmakes":1954,"ĠWith":1955,"ification":1956,"ency":1957,"Ġhouse":1958,"Ġrange":1959,"Ġbecame":1960,"ann":1961,"Ġlive":1962,"ley":1963,"Ġpolic":1964,"aim":1965,"Ġground":1966,"ued":1967,"ready":1968,"aut":1969,"Ġgrowth":1970,"ĠWar":1971,"Ġreason":1972,"//":1973,"ibility":1974,"For":1975,"icro":1976,"Ġsum":1977,"ĠGerm":1978,"ĠJohn":1979,"Ġsure":1980,"Ġscience":1981,"Ġbig":1982,"Ġactivities":1983,"Ġquality":1984,"Ġtoward":1985,"Ġ198":1986,"Ġfund":1987,"ites":1988,"ae":1989,"NA":1990,"Ġcity":1991,"ery":1992,"Ġlot":1993,"Ġemploy":1994,"ung":1995,"Ġtext":1996,"bon":1997,"edi":1998,"Ġeff":1999,"cul":2000,"Ġactivity":2001,"ott":2002,"Ġvalue":2003,"ĠOne":2004,"Ġquestion":2005,"Ġindic":2006,"Ġmodel":2007,"Ġresources":2008,"30":2009,"ĠWorld":2010,"ĠEnglish":2011,"oura":2012,"ĠLe":2013,"lo":2014,"verage":2015,"ream":2016,"Ġreduce":2017,"sych":2018,"Ġseen":2019,"Ġparticip":2020,"ĠHealth":2021,"Ġloss":2022,"ĠGen":2023,"Ġgroups":2024,"rel":2025,"Ġproducts":2026,"Ġ30":2027,"iol":2028,"Ġdiet":2029,"Ġachie":2030,"15":2031,"fact":2032,"Ġalready":2033,"Ġskills":2034,"ird":2035,"://":2036,"Ġindust":2037,"ĠGo":2038,"Ġwind":2039,"Ġwr":2040,"Ġdone":2041,"iple":2042,"uation":2043,"Ġclose":2044,"Ġstat":2045,"Ġfall":2046,"Ġbelow":2047,"Ġrecogn":2048,"osis":2049,"Ġreally":2050,"urch":2051,"200":2052,"ĠThat":2053,"Ġstory":2054,"augh":2055,"ĠBy":2056,"Ġfield":2057,"erence":2058,"Ġsoil":2059,"Ġrather":2060,"Ġissues":2061,"...":2062,"Ġpaper":2063,"16":2064,"etimes":2065,"ands":2066,"urity":2067,"unt":2068,"Ġoil":2069,"Ġtradition":2070,"Ġdeveloped":2071,"Ġarticle":2072,"Ġneg":2073,"Ġclimate":2074,"Ġoffic":2075,"When":2076,"leep":2077,"Ġword":2078,"Ġmedical":2079,"Ġbat":2080,"esc":2081,"overed":2082,"Ġdeg":2083,"mber":2084,"Ġaccording":2085,"ivity":2086,"Ġur":2087,"Ġabs":2088,"Ġeither":2089,"Ġ14":2090,"Ġsource":2091,"Ġmass":2092,"ĠIntern":2093,"ĠIm":2094,"idered":2095,"Ġaddress":2096,"ival":2097,"Ġevent":2098,"ĠCar":2099,"Ġbuilding":2100,"amin":2101,"rams":2102,"Ġprob":2103,"put":2104,"ety":2105,"fficient":2106,"Ġsurface":2107,"Ġsingle":2108,"Ġinit":2109,"ask":2110,"Ġrecomm":2111,"val":2112,"Ġphot":2113,"Ġconcept":2114,"Ġflu":2115,"Ġobserv":2116,"Ġrate":2117,"ĠMar":2118,"Ġsite":2119,"Ġnational":2120,"Ġcollect":2121,"earch":2122,"Ġred":2123,"Ġunderstanding":2124,"Ġonce":2125,"rict":2126,"Ġfrequ":2127,"17":2128,"ison":2129,"ER":2130,"ĠAm":2131,"Ġcut":2132,"Ġdrug":2133,"Ġtaken":2134,"Ġmeet":2135,"Ġsun":2136,"Ġassociated":2137,"14":2138,"rect":2139,"fer":2140,"ĠTr":2141,"Ġfive":2142,"iam":2143,"Ġresearchers":2144,"ips":2145,"ights":2146,"Ġwhole":2147,"ĠGe":2148,"Ġsize":2149,"Ġconsidered":2150,"Ġmarket":2151,"Ġdom":2152,"Ġpressure":2153,"yn":2154,"ĠDr":2155,"Ġevidence":2156,"Ġskin":2157,"ĠShe":2158,"Ġquestions":2159,"ĠSouth":2160,"Ġstress":2161,"Ġwhite":2162,"Ġfail":2163,"Ġmembers":2164,"Ġwide":2165,"Ġmaint":2166,"Ġfr":2167,"Ġnature":2168,"eter":2169,"plic":2170,"Ġtot":2171,"Ġann":2172,"Ġupon":2173,"Ġessential":2174,"ivil":2175,"ĠAb":2176,"Ġopportun":2177,"ĠCal":2178,"Ġdetail":2179,"ĠNorth":2180,"Ġfri":2181,"ule":2182,"Ġincreased":2183,"roll":2184,"ĠAmerica":2185,"Ġintrodu":2186,"ublic":2187,"Ġpay":2188,"Ġcreated":2189,"Ġhealthy":2190,"Ġthemselves":2191,"reme":2192,"Ġpractice":2193,"Ġliving":2194,"Ġhold":2195,"13":2196,"Ġ=":2197,"Ġsound":2198,"aging":2199,"Ġdoct":2200,"Ġanimals":2201,"Ġrelig":2202,"ensive":2203,"Ġsent":2204,"Ġver":2205,"Ġtell":2206,"Ġmaterials":2207,"Ġsal":2208,"utions":2209,"Ġlay":2210,"Ġcannot":2211,"Ġability":2212,"Ġcomplex":2213,"illed":2214,"Ġcame":2215,"epend":2216,"Ġfactors":2217,"Ġrelationship":2218,"Ġengine":2219,"sh":2220,"reg":2221,"Ġhistor":2222,"Ġdest":2223,"Ġpolitical":2224,"Ġsimple":2225,"Ġrequired":2226,"ournal":2227,"ibr":2228,"Ġexperien":2229,"sequ":2230,"ĠPr":2231,"Ġquick":2232,"Ġrelated":2233,"Ġreturn":2234,"org":2235,"like":2236,"aced":2237,"Ġneeded":2238,"ĠStud":2239,"Ġglobal":2240,"ĠMay":2241,"itud":2242,"Ġadult":2243,"Ġdog":2244,"Ġactually":2245,"ening":2246,"oon":2247,"Ġstates":2248,"Ġavoid":2249,"Ġcomes":2250,"Ch":2251,"Ġcondition":2252,"Ġmanagement":2253,"âĢ¦":2254,"Ġweek":2255,"Ġentire":2256,"Ġprovides":2257,"oph":2258,"eds":2259,"Ġpurp":2260,"ging":2261,"Ġfish":2262,"Ġthought":2263,"ober":2264,"ĠMan":2265,"Ġfamil":2266,"Ġeconomic":2267,"ĠAss":2268,"Ġservices":2269,"Ġblack":2270,"To":2271,"Ġexerc":2272,"enn":2273,"ai":2274,"Ġstudent":2275,"acks":2276,"Ġindividuals":2277,"Ġport":2278,"Ġspe":2279,"ney":2280,"Ġmodern":2281,"Ġnecessary":2282,"izing":2283,"Ġfat":2284,"Ġidea":2285,"ĠRep":2286,"ĠSy":2287,"Ġ13":2288,"Ġparts":2289,"Ġapproach":2290,"Ġcat":2291,"Ġdoc":2292,"eb":2293,"Ġmoney":2294,"Ġprote":2295,"Ġcoll":2296,"pro":2297,"ush":2298,"Ġassess":2299,"Ġpublished":2300,"lying":2301,"artment":2302,"Ġansw":2303,"Ġ197":2304,"chan":2305,"oses":2306,"hib":2307,"aged":2308,"ump":2309,"Ġvers":2310,"rad":2311,"ĠAust":2312,"olic":2313,"erve":2314,"vere":2315,"ĠSoc":2316,"Ġhtt":2317,"Ġalmost":2318,"Al":2319,"ened":2320,"Ġitself":2321,"Ġarg":2322,"Ġweight":2323,"go":2324,"Ġpersonal":2325,"Ġgas":2326,"Ġmonths":2327,"uel":2328,"Ġanalysis":2329,"ences":2330,"AS":2331,"usion":2332,"Ġpath":2333,"based":2334,"Ġgreen":2335,"Ġmor":2336,"ores":2337,"Ġmeasure":2338,"urs":2339,"Ġmedic":2340,"Ġproduce":2341,"ĠYork":2342,"Ġreact":2343,"Ġrights":2344,"bo":2345,"Ġsoft":2346,"ĠAct":2347,"Wh":2348,"gest":2349,"Ġlab":2350,"Ġarch":2351,"itary":2352,"Ġparents":2353,"Ġpriv":2354,"Ġemer":2355,"ĠEarth":2356,"Ġsuff":2357,"yl":2358,"Ġsuper":2359,"Ġcolor":2360,"Ġbar":2361,"Ġpopular":2362,"Ġpattern":2363,".)":2364,"Ġhalf":2365,"Ġconduct":2366,"Ġlink":2367,"Ġtar":2368,"You":2369,"Ġfeed":2370,"Ġtherap":2371,"ĠDep":2372,"Ġjob":2373,"ply":2374,"Ġclean":2375,"ĠComp":2376,"cient":2377,"Ġsam":2378,"nces":2379,"ĠX":2380,"oll":2381,"ĠHis":2382,"ections":2383,"onse":2384,"):":2385,"Ġever":2386,"ns":2387,"anced":2388,"Ġthroughout":2389,"Ġbegan":2390,"emic":2391,"Ġincreasing":2392,"Ġtook":2393,"Ġchemical":2394,"Ġcontent":2395,"ĠCont":2396,"Ġarr":2397,"Ġonline":2398,"ĠGu":2399,"abit":2400,"Ġliter":2401,"Ġcomputer":2402,"Ġ100":2403,"Ġfarm":2404,"Ġregion":2405,"irm":2406,"Ġtraining":2407,"Ġtaking":2408,"Ġbenefits":2409,"ma":2410,"mb":2411,"ĠState":2412,"Ġsense":2413,"Ġfire":2414,"Ġrepl":2415,"Ġreading":2416,"Ġwin":2417,"ĠDo":2418,"ĠFl":2419,"hold":2420,"erous":2421,"Ġge":2422,"Ġregard":2423,"Ġyet":2424,"Ġindustry":2425,"ID":2426,"Ġstop":2427,"Ġinteract":2428,"Ġut":2429,"Ġsleep":2430,"ze":2431,"utes":2432,"iction":2433,"Ġaction":2434,"Ġprinc":2435,"pid":2436,"Ġwriting":2437,"Ġsepar":2438,"Ġsociety":2439,"Ġbur":2440,"ccording":2441,"Ġtemperature":2442,"reng":2443,"ume":2444,"ese":2445,"iddle":2446,"Ġshows":2447,"Ġenvironmental":2448,"Ġrecent":2449,"my":2450,"igure":2451,"empt":2452,"ĠHist":2453,"Ġclaim":2454,"ising":2455,"het":2456,"Ġcop":2457,"Ġcompany":2458,"ches":2459,"Ġlonger":2460,"ively":2461,"yle":2462,"Ġrul":2463,"Ġdiagn":2464,"ĠCo":2465,"icles":2466,"Ġdeb":2467,"Ġinj":2468,"ulations":2469,"Ġservice":2470,"ĠWhile":2471,"Ġbehavior":2472,"Ġheat":2473,"Ġtotal":2474,"Ġprevious":2475,"ES":2476,"\".":2477,"Ġterms":2478,"ĠNe":2479,"Ġstructure":2480,"rown":2481,"uck":2482,"son":2483,"Ġhours":2484,"itation":2485,"ript":2486,"Ġ50":2487,"Ġtalk":2488,"Ġbuilt":2489,"Ġcaused":2490,"apan":2491,"Ġsafe":2492,"astic":2493,"Ġbreak":2494,"estern":2495,"ĠBritish":2496,"Ġla":2497,"ĠAfter":2498,"Ġtravel":2499,"Ġmach":2500,"Ġpositive":2501,"Ġ196":2502,"iment":2503,"Ġlives":2504,"fully":2505,"aily":2506,"Ġsix":2507,"Ġcontact":2508,"Ġmatter":2509,"Ġsurv":2510,"Ġcheck":2511,"Ġposition":2512,"Ġregular":2513,"ĠJew":2514,"Ġheav":2515,"Ġdisord":2516,"Ġmeaning":2517,"Ġcauses":2518,"Ã©":2519,"lt":2520,"mon":2521,"ropri":2522,"Ġeasy":2523,"Ġcontain":2524,"istance":2525,"Ġsat":2526,"ĠCanad":2527,"AT":2528,"Ġensure":2529,"ricult":2530,"Ġspread":2531,"Ġschools":2532,"minist":2533,"Ġprec":2534,"Ġce":2535,"Ġrev":2536,"Ġprovided":2537,"Ġdesigned":2538,"Ġhelps":2539,"ows":2540,"Ġsex":2541,"Ġconc":2542,"Ġfru":2543,"Ġmethods":2544,"Ġbring":2545,"inary":2546,"wh":2547,"Ġshown":2548,"--":2549,"lex":2550,"Ġthing":2551,"Ġvari":2552,"ĠPe":2553,"Ġvariety":2554,"Ġlif":2555,"ronic":2556,"Ġwild":2557,"Ġtrue":2558,"Ġ25":2559,"AR":2560,"istics":2561,"Ġincludes":2562,"ufact":2563,"Ġetc":2564,"aving":2565,"aff":2566,"ene":2567,"hood":2568,"asc":2569,"Ġdeep":2570,"Ġ11":2571,"vey":2572,"Ġbacter":2573,"rior":2574,"ĠResearch":2575,"Ġvide":2576,"Ġaccept":2577,"verse":2578,"Ġcarbon":2579,"Ġchalleng":2580,"Ġste":2581,"Ġaverage":2582,"atives":2583,"imately":2584,"gar":2585,"ĠNo":2586,"ster":2587,"ederal":2588,"Ġtarget":2589,"Ġidentify":2590,"ĠSchool":2591,"Ġdamage":2592,"rought":2593,"ĠEm":2594,"aries":2595,"Ġeat":2596,"Ġstreng":2597,"ners":2598,"Ġprograms":2599,"lands":2600,"Ġmechan":2601,"Ġlove":2602,"ĠIndia":2603,"ched":2604,"Ġpoll":2605,"Ġmusic":2606,"Ġsubst":2607,"ĠPar":2608,"aling":2609,"Ġencoura":2610,"Ġfem":2611,"Ġbelieve":2612,"Ġexc":2613,"Ġstandard":2614,"Ġthreat":2615,"Ġgreater":2616,"Ġslow":2617,"Ġrelative":2618,"rast":2619,"Ġcompan":2620,"Ġissue":2621,"Ġearth":2622,"Ġled":2623,"Ġviol":2624,"Ġemot":2625,"Ġresponse":2626,"ĠII":2627,"ister":2628,"ades":2629,"Ġface":2630,"Ġsust":2631,"Ġsources":2632,"Ġsimply":2633,"Ġculture":2634,"Ġbal":2635,"ĠSu":2636,"abet":2637,"know":2638,"Ġsometimes":2639,"Ġreview":2640,"dom":2641,"Ġevents":2642,"Ġcompon":2643,"eration":2644,"light":2645,"But":2646,"Ġorigin":2647,"Ġscientists":2648,"ĠCO":2649,"Ġrespect":2650,"Ġfoods":2651,"ĠJapan":2652,"Ġreported":2653,"Ġinteg":2654,"ĠInstit":2655,"Ġmovement":2656,"Ġinvolved":2657,"Ġ194":2658,"Ġremov":2659,"arily":2660,"Ġdoing":2661,"ĠÂ":2662,"Ġuses":2663,"oor":2664,"new":2665,"osition":2666,"aches":2667,"duc":2668,"Ġparticularly":2669,"Ġcompet":2670,"Ġcust":2671,"amed":2672,"ength":2673,"Ġpsych":2674,"Ġoriginal":2675,"Ġdemon":2676,"Ġoutside":2677,"ban":2678,"Ġmicro":2679,"Ġtax":2680,"Ġattention":2681,"Ġnormal":2682,"elling":2683,"ials":2684,"Ġimplement":2685,"Ġemb":2686,"Ġlack":2687,"Ġelectric":2688,"Ġpoor":2689,"Ġdeveloping":2690,"Ġharm":2691,"Ġwritten":2692,"Ġsafety":2693,"ises":2694,"Ġforms":2695,"rand":2696,"hel":2697,"rench":2698,"Ġ|":2699,"ender":2700,"ĠKing":2701,"ctions":2702,"Ġwebs":2703,"Ġcamp":2704,"issions":2705,"Ġimage":2706,"Ġgrowing":2707,"ervation":2708,"Ġple":2709,"uge":2710,"osure":2711,"ĠSec":2712,"ucle":2713,"Ġpict":2714,"ĠPres":2715,"Ġforest":2716,"Ġnetwork":2717,"room":2718,"ĠScience":2719,"Ġgenerally":2720,"ming":2721,"Ġshare":2722,"isions":2723,"Ġextreme":2724,"Ġserious":2725,"Ġconsist":2726,"Ġrefer":2727,"Ġproduced":2728,"Ġvirus":2729,"Ġaware":2730,"Ġfeet":2731,"osing":2732,"Ġmanufact":2733,"Ġbasic":2734,"oles":2735,"rated":2736,"ĠPer":2737,"umb":2738,"rim":2739,"Ġpatient":2740,"ief":2741,"22":2742,"Ġaff":2743,"Ġselect":2744,"ĠWill":2745,"Ġlog":2746,"Ġappl":2747,"ĠApp":2748,"Ġlat":2749,"ops":2750,"Ġdispl":2751,"Ġvisit":2752,"Ġcorrect":2753,"Ġlate":2754,"ĠMin":2755,"ached":2756,"Ġox":2757,"idge":2758,"Ġattempt":2759,"Ġpage":2760,"Ġcontinue":2761,"Ġwood":2762,"set":2763,"Ġteachers":2764,"Ġfinanc":2765,"ĠAustral":2766,"Ġforce":2767,"Ġanimal":2768,"Ġmental":2769,"ems":2770,"Ġcoun":2771,"Ġnumbers":2772,"IN":2773,"IS":2774,"Ġdoesn":2775,"Ġir":2776,"Ġsqu":2777,"Ġhyd":2778,"Ġdraw":2779,"fect":2780,"bor":2781,"Ġveget":2782,"ĠChina":2783,"Ġallows":2784,"Ġperformance":2785,"Ġattack":2786,"irit":2787,"cies":2788,"Ġgetting":2789,"ĠMe":2790,"Ġincluded":2791,"Ġmagn":2792,"Ġkids":2793,"25":2794,"imum":2795,"Ġtakes":2796,"ads":2797,"Ġindepend":2798,"Ġprep":2799,"raft":2800,"Ġdaily":2801,"cil":2802,"iency":2803,"ĠMany":2804,"Ġmedia":2805,"Ġunique":2806,"Ġeasily":2807,"ana":2808,"Ġap":2809,"Ġoffer":2810,"Ġspeed":2811,"Ġmess":2812,"Ġideas":2813,"ĠEd":2814,"Ġprobably":2815,"ribution":2816,"ties":2817,"Ġtools":2818,"Ġdefin":2819,"Ġnight":2820,"Ġexpress":2821,"ground":2822,"ĠQu":2823,"Ġtraditional":2824,"Ġlooking":2825,"Ġsomeone":2826,"Ġ24":2827,"Ġseries":2828,"Ġcommit":2829,"ĠPre":2830,"ext":2831,"ĠHar":2832,"Ġtherefore":2833,"Ġvacc":2834,"Ġdou":2835,"Ġpolicy":2836,"Ġcommunities":2837,"ecause":2838,"Ġappropri":2839,"vention":2840,"oes":2841,"uth":2842,"oly":2843,"ĠInt":2844,"ided":2845,"Ġconcent":2846,"Ġfa":2847,"Ġinternational":2848,"Ġdiseases":2849,"where":2850,"Ġprint":2851,"ha":2852,"ĠCount":2853,"iot":2854,"ĠMore":2855,"Ġcolon":2856,"Ġprimary":2857,"Ġachieve":2858,"ĠAg":2859,"Ġcover":2860,"ography":2861,"Ġwarm":2862,"ension":2863,"Ġthus":2864,"asons":2865,"Ġful":2866,"overy":2867,"Ġinvestig":2868,"ĠYour":2869,"Ġmother":2870,"Ġcapt":2871,"Ġdetermine":2872,"erg":2873,"itude":2874,"On":2875,"Ġcit":2876,"Ġvit":2877,"Ġprogress":2878,"Ġquite":2879,"Ġwall":2880,"rs":2881,"Ġdang":2882,"Ġdifference":2883,"Ġcross":2884,"erson":2885,"Ġearl":2886,"Ġtur":2887,"Ġmultiple":2888,"Ġsea":2889,"Ġstarted":2890,"cell":2891,"Ġ--":2892,"haps":2893,"Ġbab":2894,"Ġtree":2895,"Ġestim":2896,"rie":2897,"Ġinstead":2898,"Ġago":2899,"Ġeth":2900,"Ġquickly":2901,"cial":2902,"Ġadded":2903,"Ġleaders":2904,"Ġcompared":2905,"Ġinstit":2906,"ancy":2907,"Ġreflect":2908,"ying":2909,"ino":2910,"Ġ/":2911,"Ġdecre":2912,"Ġtown":2913,"Ġrout":2914,"Ġcompanies":2915,"Ġsecurity":2916,"Ġeval":2917,"Ġsil":2918,"Ġhumans":2919,"iques":2920,"ĠJan":2921,"ror":2922,"ĠCons":2923,"Ġdiv":2924,"Ġfav":2925,"Ġpoints":2926,"rate":2927,"Ġinside":2928,"ĠCenter":2929,"ĠBo":2930,"Ġunc":2931,"Ġscientific":2932,"Ġlarger":2933,"nov":2934,"Ġgard":2935,"ington":2936,"inks":2937,"Ġnation":2938,"Ġtend":2939,"Ġtheory":2940,"Ġaltern":2941,"rew":2942,"ls":2943,"ĠJu":2944,"ĠPart":2945,"Ġtiss":2946,"Ġbooks":2947,"Ġdry":2948,"ĠGl":2949,"Ġthous":2950,"Ġsold":2951,"Ġreve":2952,"ius":2953,"na":2954,"Ġsolar":2955,"ĠAug":2956,"Ġsou":2957,"term":2958,"Ġcritical":2959,"ĠEuropean":2960,"uary":2961,"Ġimmedi":2962,"Ġaspect":2963,"Ġcivil":2964,"joy":2965,"Ġtrees":2966,"ĠEduc":2967,"Ġhighly":2968,"ellow":2969,"Ġestablished":2970,"Ġ40":2971,"anks":2972,"One":2973,"ift":2974,"Ġadditional":2975,"Ġdirectly":2976,"Ġheld":2977,"ĠIndian":2978,"ceed":2979,"iforn":2980,"Ġinfection":2981,"Ġeye":2982,"ounds":2983,"Ġanaly":2984,"ille":2985,"Ġthird":2986,"Ġaccur":2987,"Ġleading":2988,"Ġexercise":2989,"Ġprior":2990,"Ġanswer":2991,"Ġspeak":2992,"Ġsevere":2993,"Ġnegative":2994,"Ġi":2995,"ĠMost":2996,"AN":2997,"www":2998,"Ġdemonstr":2999,"Ġstay":3000,"Ġ,":3001,"ĠEl":3002,"Ġbehind":3003,"Ġtowards":3004,"Ġactive":3005,"elt":3006,"Ġclin":3007,"ulate":3008,"Ġextra":3009,"Ġdocument":3010,"Ġmilitary":3011,"Ġproced":3012,"ĠFrench":3013,"abetes":3014,"vant":3015,"Ġcustom":3016,"Ġbit":3017,"Ġacid":3018,"useum":3019,"omet":3020,"ĠAc":3021,"Ġfoot":3022,"Ġdrink":3023,"Ġfront":3024,"gency":3025,"Ġaim":3026,"Ġaud":3027,"iers":3028,"Ġtransport":3029,"Ġbirth":3030,"Ġfamilies":3031,"oming":3032,"Ġbroad":3033,"ifornia":3034,"Ġhost":3035,"Ġhar":3036,"fl":3037,"undred":3038,"Ġsoon":3039,"arr":3040,"ĠInstitute":3041,"Ġsupply":3042,"ĠSm":3043,"Ġhot":3044,"Ġstrateg":3045,"Ġalthough":3046,"Ġsustain":3047,"pril":3048,"Ġlabor":3049,"ĠJes":3050,"yond":3051,"uries":3052,"pe":3053,"den":3054,"ĠOf":3055,"Ġvalues":3056,"Ġtri":3057,"Ġcentral":3058,"Ġfeatures":3059,"Ġcontribut":3060,"ON":3061,"Ġhor":3062,"Ġuseful":3063,"oring":3064,"ĠAfrica":3065,"ĠDepartment":3066,"Ġwalk":3067,"rig":3068,"23":3069,"itis":3070,"cean":3071,"Ġhabit":3072,"Ġshall":3073,"ils":3074,"Ġbad":3075,"Ġpurpose":3076,"Ġobt":3077,"OR":3078,"fort":3079,"isms":3080,"Ġfram":3081,"Ġfinancial":3082,"Ġstra":3083,"aly":3084,"Ġquant":3085,"Ġteaching":3086,"thern":3087,"formation":3088,"Ġexpect":3089,"rition":3090,"Ġdoctor":3091,"Ġsoftware":3092,"Ġlimited":3093,"ĠWest":3094,"ĠUs":3095,"Ġsituation":3096,"Ġcard":3097,"hens":3098,"Ġwent":3099,"Ġprotein":3100,"Ġbeginning":3101,"ĠRec":3102,"Ġrequires":3103,"Ġvideo":3104,"Ġones":3105,"mar":3106,"Ġhands":3107,"21":3108,"Ġseems":3109,"bol":3110,"Ġpack":3111,"ĠArt":3112,"He":3113,"ĠChild":3114,"So":3115,"Ġelements":3116,"Ġenjoy":3117,"izations":3118,"ologies":3119,"ĠMarch":3120,"iber":3121,"ĠOther":3122,"Ġsearch":3123,"Ġcru":3124,"Ġsection":3125,"ĠAfrican":3126,"âĢ¢":3127,"ĠCalifornia":3128,"Ġwaste":3129,"Ġwhose":3130,"right":3131,"inct":3132,"ĠNot":3133,"ĠOct":3134,"Ġmount":3135,"Ġmom":3136,"ĠRuss":3137,"rogen":3138,"hern":3139,"Ġinfluence":3140,"Ġimportance":3141,"Ġdecl":3142,"ching":3143,"Ġdevices":3144,"come":3145,"Ġblock":3146,"lection":3147,"Ġbase":3148,"Ġrates":3149,"Ġcapital":3150,"Ġworkers":3151,"Ġapplication":3152,"Ġprotection":3153,"Ġcosts":3154,"uman":3155,"Ġfight":3156,"ĠGerman":3157,"Ġ2010":3158,"Ġancient":3159,"Ġthinking":3160,"Ġnews":3161,"omb":3162,"Ġminutes":3163,"Ġcontains":3164,"ĠReg":3165,"Ġhttp":3166,"Ġdark":3167,"Ġprocesses":3168,"ĠHere":3169,"Ġtechniques":3170,"equ":3171,"Ġstri":3172,"ipment":3173,"ilos":3174,"Ġinterp":3175,"Ġlost":3176,"Ġang":3177,"Ġfast":3178,"Ġwrite":3179,"Ġ2012":3180,"ĠAlthough":3181,"gn":3182,"olar":3183,"iter":3184,"Ġexact":3185,"Ġdecision":3186,"ĠInternational":3187,"Ġlength":3188,"imin":3189,"Ġcommunication":3190,"Ġtypically":3191,"Ġdemand":3192,"Ġleaves":3193,"coh":3194,"Ġagricult":3195,"imal":3196,"IC":3197,"ields":3198,"hest":3199,"ĠChar":3200,"40":3201,"Ġcapac":3202,"Ġveh":3203,"Ġsn":3204,"Ġadults":3205,"pper":3206,"ĠSept":3207,"vest":3208,"istry":3209,"ĠHer":3210,"And":3211,"oke":3212,"Ġcred":3213,"âĢĿ.":3214,"Ġdisp":3215,"Ġprivate":3216,"ĠTra":3217,"cks":3218,"Ġelse":3219,"rote":3220,"ĠKe":3221,"uk":3222,"Ġsolution":3223,"Ġgame":3224,"ĠJune":3225,"Ġweeks":3226,"Ġprojects":3227,"att":3228,"Ġnucle":3229,"estic":3230,"Ġbrought":3231,"Ġexcept":3232,"Ġadminist":3233,"wise":3234,"Ġappropriate":3235,"Ġhundred":3236,"ription":3237,"Ġcarry":3238,"Ġadapt":3239,"Ġbacteria":3240,"Ġreceived":3241,"Ġstru":3242,"IV":3243,"ĠAnt":3244,"Ġimages":3245,"Ġbecomes":3246,"Ġcreating":3247,"Ġult":3248,"Ġgot":3249,"Ġapplications":3250,"Ġwebsite":3251,"Ġgoal":3252,"Ġwa":3253,"idents":3254,"Ġfit":3255,"Ġadop":3256,"ĠMon":3257,"ulated":3258,"ĠMus":3259,"ĠGree":3260,"Ġadj":3261,"izes":3262,"Ġbeaut":3263,"ĠAugust":3264,"Ġenh":3265,"Ġreach":3266,"Ġefforts":3267,"Ġseason":3268,"Ġjud":3269,"Ġlargest":3270,"ran":3271,"orthern":3272,"Ġplaces":3273,"____":3274,"odies":3275,"ĠRiver":3276,"Ġdescribed":3277,"Ġestablish":3278,"Ġ2011":3279,"con":3280,"Ġtesting":3281,"Ġlines":3282,"Ġcultural":3283,"Ġlocated":3284,"uous":3285,"used":3286,"mission":3287,"Ġord":3288,"Ġinstall":3289,"Ġnearly":3290,"sect":3291,"Ġpractices":3292,"ĠSw":3293,"ĠHistory":3294,"king":3295,"ĠCor":3296,"Ġagree":3297,"ĠServ":3298,"Ġtests":3299,"Ġmill":3300,"Ġrespond":3301,"Ġtable":3302,"ĠFirst":3303,"Ġcool":3304,"Ġsurround":3305,"Ġremains":3306,"Ġadvant":3307,"rag":3308,"iles":3309,"ĠJesus":3310,"ĠSch":3311,"lim":3312,"Ġremain":3313,"Ġmemory":3314,"see":3315,"Ġrare":3316,"Ġcrop":3317,"60":3318,"oud":3319,"Ġmention":3320,"Ġmonitor":3321,"Ġrapid":3322,"Ġmix":3323,"Ġep":3324,"Ġlaws":3325,"year":3326,"Ġegg":3327,"Ġnorth":3328,"'re":3329,"AC":3330,"Ġproviding":3331,"ĠApril":3332,"resh":3333,"ĠFrom":3334,"Ġproperty":3335,"Ġoverall":3336,"Ġdigital":3337,"ĠBar":3338,"Ġfriends":3339,"itect":3340,"Ġbreat":3341,"Ġx":3342,"life":3343,"Ġeyes":3344,"80":3345,"Ġsummer":3346,"Ġmole":3347,"med":3348,"ĠDav":3349,"Ġsites":3350,"Ġtherapy":3351,"ĠTw":3352,"24":3353,"Ġ21":3354,"itable":3355,"Ġreligious":3356,"EN":3357,"eal":3358,"ibrary":3359,"ellig":3360,"inese":3361,"Ġdeal":3362,"Ġautom":3363,"Ġjo":3364,"ĠJuly":3365,"Ġeating":3366,"ĠWash":3367,"Ġpan":3368,"ding":3369,"Ġbehavi":3370,"bit":3371,"Ġtransl":3372,"ĠAmericans":3373,"At":3374,"iece":3375,"rael":3376,"Ġtold":3377,"back":3378,"Ġteeth":3379,"Ġborn":3380,"atur":3381,"ĠMy":3382,"ribute":3383,"These":3384,"ipl":3385,"ED":3386,"ĠDay":3387,"Ġresponsible":3388,"Ġgives":3389,"Ġbasis":3390,"Ġfuel":3391,"arian":3392,"Ġcold":3393,"aid":3394,"Ġconstruction":3395,"cles":3396,"Ġstage":3397,"Ġvict":3398,"Ġprofessional":3399,"head":3400,"Ġsugar":3401,"ĠEngland":3402,"tery":3403,"ĠChristian":3404,"Ġdead":3405,"Ġweb":3406,"Ġcele":3407,"water":3408,"Ġsouth":3409,"wor":3410,"Ġ2013":3411,"Ġfather":3412,"Ġcitiz":3413,"iar":3414,"ĠAssoci":3415,"ĠMc":3416,"Ġguid":3417,"Ġhimself":3418,"Ġbenefit":3419,"Ġequipment":3420,"ĠCanada":3421,"ype":3422,"Ġcenter":3423,"illing":3424,"Ġhope":3425,"Ġconnect":3426,"Ġyourself":3427,"Ġcalcul":3428,"Ġfinal":3429,"Ġroom":3430,"cohol":3431,"Ġteacher":3432,"By":3433,"Ġdevice":3434,"Ġreasons":3435,"Ġcode":3436,"Ġsaw":3437,"Ġmiles":3438,"Ġcou":3439,"Ġdied":3440,"Ġeverything":3441,"Ġgradu":3442,"Ġanything":3443,"uments":3444,"Ġcam":3445,"Ġdepend":3446,"Ġaffected":3447,"Ġcommand":3448,"Ġreceive":3449,"ari":3450,"Ġchoose":3451,"aul":3452,"Ġbeyond":3453,"ĠPress":3454,"Ġmodels":3455,"Ġexposure":3456,"co":3457,"Ġder":3458,"Ġlegal":3459,"Ġspirit":3460,"Ġexpected":3461,"ĠProg":3462,"Ġice":3463,"Ġcoast":3464,"Ġscreen":3465,"ira":3466,"ham":3467,"While":3468,"time":3469,"strial":3470,"199":3471,"Ġund":3472,"Ġtrade":3473,"Ġconsequ":3474,"Ġexamples":3475,"Ġhous":3476,"ondon":3477,"Ġcommunic":3478,"ĠWilliam":3479,"Ġcra":3480,"aught":3481,"Ġanti":3482,"Ġstrength":3483,"sec":3484,"ogen":3485,"Ġrecently":3486,"ĠPresident":3487,"Ġimag":3488,"Ex":3489,"Ġson":3490,"Ġopportunity":3491,"mosp":3492,"Ġbott":3493,"ford":3494,"Ġnothing":3495,"ony":3496,"Ġweather":3497,"Ġolder":3498,"Ġinsp":3499,"ĠCong":3500,"Ġpen":3501,"ĠGovern":3502,"Ġrecommend":3503,"Ġmeasures":3504,"ĠPark":3505,"With":3506,"cember":3507,"Ġsequ":3508,"Ġmaintain":3509,"exic":3510,"Ġobjects":3511,"ests":3512,"ĠRet":3513,"Ġfollowed":3514,"ev":3515,"Ġcontroll":3516,"ĠChurch":3517,"ama":3518,"Ġmiddle":3519,"Ġbul":3520,"ĠLear":3521,"Ġeconomy":3522,"Ġsmaller":3523,"ĠEducation":3524,"ĠTechn":3525,"Ġten":3526,"Ġpet":3527,"Ġking":3528,"bur":3529,"Ġlocation":3530,"iples":3531,"Ġusers":3532,"Ġconflic":3533,"Ġsett":3534,"Ġmid":3535,"Ġeveryone":3536,"Ġ:":3537,"uff":3538,"Ġhyp":3539,"Ġrock":3540,"Ġfear":3541,"ula":3542,"Ġvisual":3543,"Ġforces":3544,"Ġrain":3545,"Ġorganization":3546,"Ġasked":3547,"ought":3548,"Ġoccurs":3549,"Ġdate":3550,"ĠSeptember":3551,"IT":3552,"vert":3553,"Ġinstru":3554,"Ġstandards":3555,"à¤":3556,"Ġshape":3557,"ĠInc":3558,"ĠCity":3559,"Ġrob":3560,"Ġdiabetes":3561,"ovember":3562,"isl":3563,"Ġalone":3564,"Ġ2009":3565,"load":3566,"Ġrise":3567,"Ġsuccessful":3568,"ĠGreat":3569,"rees":3570,"Ġbirds":3571,"Ġfederal":3572,"Ġswe":3573,"ĠJournal":3574,"enge":3575,"Ġcommonly":3576,"Ġscale":3577,"Ġpregn":3578,"ĠChinese":3579,"Ġcurrently":3580,"Ġpredict":3581,"airs":3582,"Ġdifferences":3583,"Ġtrying":3584,"Ġdegree":3585,"Ġsteps":3586,"apter":3587,"ospital":3588,"amic":3589,"ĠIsrael":3590,"ĠEven":3591,"Ġuser":3592,"ĠWashington":3593,"Ġconstant":3594,"Ġcompletely":3595,"PA":3596,"Ġwoman":3597,"Ġpurch":3598,"Ġwon":3599,"Ġvirt":3600,"Ġeffort":3601,"lin":3602,"ensity":3603,"Ġrules":3604,"Ġwinter":3605,"Ġbeg":3606,"Ġelectr":3607,"anish":3608,"Ġisn":3609,"Ġconstit":3610,"ĠCom":3611,"Ġ2008":3612,"wide":3613,"ĠOur":3614,"Ġgoes":3615,"ĠAccording":3616,"Ġearlier":3617,"ĠOctober":3618,"Ġvia":3619,"ĠJanuary":3620,"Ġtrack":3621,"ĠSim":3622,"Ġdrugs":3623,"Ġreduced":3624,"Ġrich":3625,"Ġpowerful":3626,"Ġtit":3627,"iable":3628,"ĠSystem":3629,"Ġchallenges":3630,"Ġcollection":3631,"Ġperfect":3632,"Ġwrote":3633,"Ġjoint":3634,"su":3635,"Ġmax":3636,"can":3637,"book":3638,"Ġleave":3639,"ĠDis":3640,"ĠRed":3641,"Ġinteresting":3642,"Ġhon":3643,"Ġnutri":3644,"Ġapprox":3645,"oday":3646,"Ġplaced":3647,"ĠPol":3648,"ĠDevelop":3649,"aur":3650,"ĠThen":3651,"ica":3652,"mitted":3653,"Ġfruit":3654,"Ġgenetic":3655,"ĠCommun":3656,"bre":3657,"ĠFeb":3658,"Ġ60":3659,"Ġplanet":3660,"men":3661,"Ġsigns":3662,"Ġidentified":3663,"Ġcontext":3664,"Ġsect":3665,"Ġmob":3666,"Ġcommerc":3667,"Ġhistorical":3668,"oe":3669,"ĠMexic":3670,"ĠCounty":3671,"Ġexec":3672,"Ġbillion":3673,"Ġnamed":3674,"Ġimmune":3675,"care":3676,"Ġcateg":3677,"more":3678,"ĠEc":3679,"Ġroad":3680,"Ġpatterns":3681,"itch":3682,"Ġtox":3683,"Ġ23":3684,"Ġallowed":3685,"rick":3686,"ocks":3687,"ocr":3688,"Ġmember":3689,"Ġefficient":3690,"ĠIS":3691,"Ġenter":3692,");":3693,"Ġball":3694,"Ġformer":3695,"iest":3696,"rec":3697,"Ġfile":3698,"Ġpoly":3699,"Ġneigh":3700,"Ġapplied":3701,"ords":3702,"Ġ2014":3703,"ĠTrans":3704,"Ġacqu":3705,"Ġpromot":3706,"Ġdiscovered":3707,"ibly":3708,"oration":3709,"Ġpresence":3710,"ingu":3711,"ĠSur":3712,"Ġmis":3713,"ĠInst":3714,"bl":3715,"Ġlimit":3716,"Some":3717,"ara":3718,"Ġemissions":3719,"Ġsymbol":3720,"ĠHigh":3721,"Ġwond":3722,"ĠEast":3723,"ĠLondon":3724,"Ġcoming":3725,"Ġproperties":3726,"ocol":3727,"Ġdisplay":3728,"27":3729,"ĠVir":3730,"edia":3731,"Ġcontinued":3732,"Ġanx":3733,"Ġmachine":3734,"Ġdestro":3735,"Ġoccup":3736,"ste":3737,"Ġeffic":3738,"Ġincor":3739,"Ġgold":3740,"enty":3741,"irection":3742,"ĠDNA":3743,"off":3744,"Ġcook":3745,"edom":3746,"osy":3747,"Ġeight":3748,"ĠBi":3749,"Ġsch":3750,"Ġcry":3751,"Ġstatus":3752,"Ġchoice":3753,"Ġbra":3754,"Ġrule":3755,"Ġmiss":3756,"Ġsitu":3757,"eech":3758,"ĠDuring":3759,"Ġmouth":3760,"Ġoffers":3761,"aled":3762,"Ġteach":3763,"Ġremember":3764,"Ġmig":3765,"phas":3766,"aint":3767,"Ġemp":3768,"Ġpow":3769,"Ġacad":3770,"Ġmajority":3771,"aste":3772,"Ġchurch":3773,"Ġillness":3774,"reet":3775,"known":3776,"alt":3777,"Ġactions":3778,"Ġasse":3779,"Ġshowed":3780,"Ġnote":3781,"aters":3782,"Ġformed":3783,"que":3784,"Ġbelief":3785,"Ġcapacity":3786,"ees":3787,"Ġopportunities":3788,"Ġfair":3789,"gery":3790,"ĠVal":3791,"Ġinnov":3792,"Pro":3793,"Ġden":3794,"ament":3795,"ĠDecember":3796,"Ġcomponents":3797,"Ġcompar":3798,"Ġdat":3799,"ĠMod":3800,"ĠBlack":3801,"hemat":3802,"Ġstrugg":3803,"cious":3804,"ĠRead":3805,"Ġassist":3806,"related":3807,"Ġincreases":3808,"iring":3809,"Ġstim":3810,"ĠLaw":3811,"Ġfactor":3812,"AL":3813,"Ġfully":3814,"Ġgave":3815,"abilities":3816,"encies":3817,"Ġatmosp":3818,"ĠPat":3819,"26":3820,"rehens":3821,"Ġtou":3822,"Ġrat":3823,"29":3824,"Ġ193":3825,"Ġcities":3826,"Ġversion":3827,"Ġperhaps":3828,"Ad":3829,"lor":3830,"rab":3831,"Ġexplore":3832,"Ġmoment":3833,"ruary":3834,"Ġrelatively":3835,"Ġworth":3836,"iate":3837,"Ġroot":3838,"ternal":3839,"craft":3840,"Ġfresh":3841,"ĠCour":3842,"ĠRoman":3843,"unch":3844,"Ġgir":3845,"Ġstrategies":3846,"Ġtissue":3847,"ĠSan":3848,"ĠNovember":3849,"Ġstories":3850,"Ġbalance":3851,"Ġillust":3852,"odes":3853,"ĠArch":3854,"Ġ2007":3855,"Ġbaby":3856,"Ġcourt":3857,"Ġgarden":3858,"Ġfemale":3859,"iful":3860,"ĠAlso":3861,"Ġassign":3862,"Ġoptions":3863,"udd":3864,"Ġantib":3865,"Ġing":3866,"Ġexisting":3867,"Ġeducational":3868,"Ġpeace":3869,"70":3870,"Ġcollabor":3871,"ĠSince":3872,"ĠAre":3873,"Ġdidn":3874,"Ġphilos":3875,"Ġconvers":3876,"Ġarchitect":3877,"ĠCoun":3878,"Ġchanged":3879,"Ġprice":3880,"Ġtask":3881,"Ġsignificantly":3882,"ĠFin":3883,"Ġast":3884,"Ġhair":3885,"Ġmoving":3886,"ĠWater":3887,"emy":3888,"Ġconsumption":3889,"ĠNow":3890,"Ġalcohol":3891,"ĠBecause":3892,"28":3893,"Ġfunctions":3894,"force":3895,"rupt":3896,"Ġinstance":3897,"Ġvill":3898,"Ġforward":3899,"ĠUse":3900,"Ġevolution":3901,"house":3902,"Ġnames":3903,"Ġstaff":3904,"Ġgiving":3905,"ĠHouse":3906,"Ġpiece":3907,"Ġexperiences":3908,"Ġsusp":3909,"Ġexpand":3910,"resp":3911,"Ġunit":3912,"Ġconstruct":3913,"Ġappears":3914,"Ġdetect":3915,"iences":3916,"orge":3917,"Ġdistance":3918,"Ġ195":3919,"gypt":3920,"amb":3921,"inated":3922,"ĠProf":3923,"Ġevalu":3924,"ĠGeneral":3925,"Ġtransfer":3926,"ĠUnion":3927,"rief":3928,"ession":3929,"ĠUK":3930,"ĠSociety":3931,"Ġmut":3932,"Ġelement":3933,"Ġfindings":3934,"era":3935,"Ġabsor":3936,"Ġ+":3937,"Ġguide":3938,"ero":3939,"Ġworked":3940,"eding":3941,"Ġregions":3942,"atin":3943,"II":3944,"ĠProt":3945,"ĠConf":3946,"ĠAustralia":3947,"Ġwid":3948,"Ġobserved":3949,"aign":3950,"Ġvo":3951,"ĠJust":3952,"Ġmal":3953,"ygen":3954,"Ġgain":3955,"orage":3956,"ĠPeople":3957,"Ġcontract":3958,"Ġriver":3959,"icip":3960,"Ġrepe":3961,"Ġresistance":3962,"Ġbox":3963,"Is":3964,"Ġplanning":3965,"Be":3966,"ky":3967,"Ġutil":3968,"Ġblue":3969,"Ġweak":3970,"Ġreports":3971,"Ġorganizations":3972,"Ġequal":3973,"ĠTheir":3974,"Ġstar":3975,"iny":3976,"EC":3977,"Ġincome":3978,"part":3979,"Ġrunning":3980,"Ġgoals":3981,"Ġstyle":3982,"Ġtele":3983,"ĠRo":3984,"Ġfriend":3985,"Ġqual":3986,"ĠGermany":3987,"Ġthousands":3988,"Ġtechnologies":3989,"ĠBr":3990,"Ġpicture":3991,"ux":3992,"Ġattract":3993,"Ġbelieved":3994,"Ġmission":3995,"Ġhuge":3996,"Ġexcess":3997,"Ġfert":3998,"Ġinstruct":3999,"Ġrequirements":4000,"Ġforeign":4001,"Ġdirection":4002,"Ġchance":4003,"Ġmap":4004,"rome":4005,"ifically":4006,"Ġinsect":4007,"Ġmuscle":4008,"asks":4009,"Ġvision":4010,"Ġ28":4011,"SA":4012,"ĠEnvironment":4013,"Un":4014,"Ġ26":4015,"Ġ2015":4016,"Ġbound":4017,"Ġclinical":4018,"Ġsuggests":4019,"igen":4020,"Ġwrong":4021,"ĠJewish":4022,"Ġnative":4023,"ses":4024,"Ġplastic":4025,"Ġdetails":4026,"Ġbreast":4027,"ĠFrance":4028,"Ġfamous":4029,"Ġexperim":4030,"ST":4031,"hors":4032,"Ġpp":4033,"Ġwatch":4034,"asion":4035,"\",":4036,"Ġiron":4037,"Ġdisorder":4038,"iding":4039,"yd":4040,"Ġexplain":4041,"Ġfeature":4042,"Ġspect":4043,"rieved":4044,"Ġsurvey":4045,"iox":4046,"ald":4047,"Ġeasier":4048,"Ġexhib":4049,"Ġassum":4050,"Ġstructures":4051,"omas":4052,"Ġcitizens":4053,"Ġpassed":4054,"Ġfix":4055,"Ġcelebr":4056,"Ġmo":4057,"âĢĿ,":4058,"pris":4059,"Ġitems":4060,"Ġintellig":4061,"che":4062,"Ġapply":4063,"iance":4064,"Ġoffice":4065,"Ġtreated":4066,"All":4067,"Ġsuppl":4068,"uild":4069,"ĠEach":4070,"Ġplans":4071,"Ġsac":4072,"Ġclassroom":4073,"Ġdefined":4074,"Ġ22":4075,"Ġvary":4076,"ĠAssociation":4077,"Ġglass":4078,"Ġcommercial":4079,"Ġextremely":4080,"ĠPhil":4081,"Ġdecisions":4082,"Ġrot":4083,"oma":4084,"Ġfavor":4085,"Ġurban":4086,"Ġcarried":4087,"ĠMedic":4088,"HE":4089,"Ġemphas":4090,"Ġheavy":4091,"Ġeventually":4092,"DA":4093,"Ġseparate":4094,"Ġhighest":4095,"Ġspring":4096,"Ġmilk":4097,"pped":4098,"After":4099,"ĠCongress":4100,"Ġgeneration":4101,"ĠLet":4102,"ographic":4103,"Ġphen":4104,"isation":4105,"Ġimmediately":4106,"Ġseven":4107,"eces":4108,"Ġsave":4109,"Ġ2000":4110,"Ġdivid":4111,"ĠEgypt":4112,"Ġhappen":4113,"Ġ27":4114,"bed":4115,"Ġreality":4116,"Ġliqu":4117,"ĠAng":4118,"Ġdecades":4119,"plications":4120,"Ġindustrial":4121,"ogle":4122,"Ġperspect":4123,"Ġmale":4124,"Ġpick":4125,"Ġpresented":4126,"Ġdepression":4127,"char":4128,"Ġfigure":4129,"Ġlearned":4130,"cont":4131,"uit":4132,"Ġserve":4133,"ĠLord":4134,"Ġmedicine":4135,"Ġremove":4136,"Ġdyn":4137,"Ġreducing":4138,"ĠGreen":4139,"Ġbone":4140,"ulum":4141,"Ġboard":4142,"ĠFebruary":4143,"nes":4144,"Ġneu":4145,"Ġresource":4146,"ĠPal":4147,"Ġbed":4148,"ĠThus":4149,"Ġconducted":4150,"Ġjournal":4151,"Ġrecommended":4152,"Ġchallenge":4153,"Ġaspects":4154,"Ġnutrition":4155,"do":4156,"ĠColle":4157,"wards":4158,"ares":4159,"change":4160,"ĠBra":4161,"Ġbank":4162,"Ġtruth":4163,"They":4164,"ube":4165,"Ġrisks":4166,"zz":4167,"Ġtopic":4168,"Ġfaith":4169,"Ġbecoming":4170,"ĠWestern":4171,"Ġnovel":4172,"Ġtemperatures":4173,"Ġ2016":4174,"iant":4175,"90":4176,"Ġalternative":4177,"RE":4178,"cast":4179,"Ġsolutions":4180,"ken":4181,"Ġelectricity":4182,"Ġbodies":4183,"Ġiniti":4184,"Ġinvolves":4185,"ĠCur":4186,"Ġmetal":4187,"ructure":4188,"Ġstream":4189,"Ġslight":4190,"Ġcycle":4191,"Ġrelease":4192,"ĠInternet":4193,"Ġhom":4194,"Ġtrust":4195,"ĠDon":4196,"Ġagg":4197,"Ġmer":4198,"Ġkid":4199,"Ġapproximately":4200,"Ġpul":4201,"ĠAut":4202,"ĠInter":4203,"ĠRev":4204,"Ġdogs":4205,"bal":4206,"Ġsexual":4207,"enth":4208,"Ġfrequently":4209,"ĠPublic":4210,"Ġintroduced":4211,"ĠOver":4212,"Ġpopulations":4213,"ologist":4214,"Ġcand":4215,"Ġnumerous":4216,"Ġdistribution":4217,"Ġchronic":4218,"ĠUN":4219,"Ġhousehold":4220,"erate":4221,"Ġperformed":4222,"uses":4223,"ĠMary":4224,"ĠProgram":4225,"Ġcombination":4226,"Ġdisorders":4227,"ingly":4228,"Ġactual":4229,"Ġcausing":4230,"ophy":4231,"atform":4232,"Ġhomes":4233,"Ġ2006":4234,"Ġconnected":4235,"Ġoperations":4236,"Ġthr":4237,"ĠSpec":4238,"Ġorganic":4239,"icial":4240,"Ġlegisl":4241,"Ġrecords":4242,"Ġâ":4243,"Ġoxygen":4244,"ĠDes":4245,"Â°":4246,"Ġcrucial":4247,"Ar":4248,"Ġgraph":4249,"iveness":4250,"ĠMat":4251,"unction":4252,"Ġves":4253,"Ġign":4254,"Ġsetting":4255,"Ġwidely":4256,"Ġfields":4257,"apers":4258,"met":4259,"Ġanxiety":4260,"Ġstore":4261,"Ġinflamm":4262,"Ġfig":4263,"Ġopin":4264,"ĠJames":4265,"Ġletter":4266,"antic":4267,"Ġexperiment":4268,"Ġspeech":4269,"ĠMor":4270,"Ph":4271,"Ġcontrast":4272,"Ġnuclear":4273,"Ġ2017":4274,"35":4275,"ously":4276,"Ġcompl":4277,"ognitive":4278,"ĠCouncil":4279,"Ġbuildings":4280,"ĠChe":4281,"ĠJapanese":4282,"Ġestimated":4283,"ilit":4284,"Ġprefer":4285,"Ġassessment":4286,"imens":4287,"Ġpolicies":4288,"Ġshap":4289,"ulf":4290,"Ġdestroy":4291,"Ġcharacteristics":4292,"ias":4293,"Ġdesp":4294,"Ġbuy":4295,"ĠNet":4296,"tical":4297,"tee":4298,"opy":4299,"Ġfilm":4300,"ida":4301,"edic":4302,"Ġmoved":4303,"AM":4304,"Ġvitamin":4305,"Ġlayer":4306,"erences":4307,"Ġmag":4308,"othes":4309,"Ġflood":4310,"Ġsample":4311,"Sh":4312,"rant":4313,"Ġchanging":4314,"works":4315,"ressive":4316,"porary":4317,"Ġ80":4318,"ĠMich":4319,"Ġconnection":4320,"Ġreleased":4321,"Ġdrive":4322,"ĠPlan":4323,"ager":4324,"Ġliterature":4325,"Ġparticipants":4326,"elines":4327,"Ġessay":4328,"ĠDec":4329,"Ġrelationships":4330,"ĠDavid":4331,"Ġtrig":4332,"Ġresulting":4333,"Ġreference":4334,"ĠFound":4335,"clus":4336,"Ġesc":4337,"Ġviolence":4338,"ĠChildren":4339,"Ġindependent":4340,"order":4341,"Ġgene":4342,"raw":4343,"Ġdri":4344,"Ġnotes":4345,"Ġalg":4346,"roph":4347,"ĠVol":4348,"Ġadjust":4349,"Ġtrend":4350,"Ġinfections":4351,"ĠAv":4352,"Ġtechnique":4353,"ologists":4354,"Ġstarting":4355,"Ġgets":4356,"Ġdoub":4357,"Ġclearly":4358,"Ġpresident":4359,"Ġparty":4360,"Ġpartners":4361,"ĠWeb":4362,"olved":4363,"Ġemail":4364,"Ġtour":4365,"Ġfailure":4366,"Ġready":4367,"anging":4368,"Ġprepar":4369,"hetic":4370,"ĠUnder":4371,"Ġdistinct":4372,"However":4373,"Ġstorage":4374,"Ġincorpor":4375,"Ġunivers":4376,"ĠTherefore":4377,"urance":4378,"Ġbottom":4379,"Ġencourage":4380,"raction":4381,"Ġdiscussion":4382,"Ġeffectively":4383,"Ġburn":4384,"Ġisol":4385,"Ġinitial":4386,"Ġemotional":4387,"Ġdrop":4388,"Ġmic":4389,"ET":4390,"Ġinjury":4391,"PS":4392,"Ġcomprehens":4393,"Ġlived":4394,"ĠRetrieved":4395,"ii":4396,"ĠRel":4397,"Ġsurgery":4398,"Ġanyone":4399,"ĠCollege":4400,"Ġappe":4401,"Ġtooth":4402,"ped":4403,"Ġ2005":4404,"Ġjour":4405,"Ġcovered":4406,"ĠSee":4407,"tered":4408,"Ġseeds":4409,"Ġwanted":4410,"Ġkilled":4411,"Ġinternal":4412,"Ġcreation":4413,"EM":4414,"Ġadvanced":4415,"Ġthick":4416,"Ġtim":4417,"Ġpromote":4418,"Ġsav":4419,"rest":4420,"Ġproperly":4421,"Ġreplace":4422,"Ġhorm":4423,"ĠSocial":4424,"olid":4425,"Ġvul":4426,"Ġgames":4427,"osystem":4428,"Ġhear":4429,"Ġprofession":4430,"ieties":4431,"ocal":4432,"cular":4433,"ĠFood":4434,"ĠDevelopment":4435,"Ġfeeling":4436,"Ġauthors":4437,"essor":4438,"ĠWork":4439,"Ġminor":4440,"Ġoption":4441,"atically":4442,"Ġlandsc":4443,"Ġfinding":4444,"onds":4445,"Ġocean":4446,"ss":4447,"ĠHuman":4448,".;":4449,"roup":4450,"Ġscen":4451,"Ġupd":4452,"45":4453,"Ġcampaign":4454,"ij":4455,"ĠSpanish":4456,"Ġtransform":4457,"Ġdepending":4458,"Ġcircum":4459,"ieces":4460,"key":4461,"Ġnoted":4462,"Ġbackground":4463,"Ġdangerous":4464,"Sp":4465,"Ġseed":4466,"Ġhappens":4467,"According":4468,"amental":4469,"ĠGreek":4470,"Ġexcell":4471,"Ġstatement":4472,"Ġreprodu":4473,"Ġdegrees":4474,"erved":4475,"Ġmanage":4476,"Ġsand":4477,"Ġvessel":4478,"Ġexperts":4479,"Ġoutput":4480,"Ġcollege":4481,"Ġsustainable":4482,"OS":4483,"ios":4484,"Ġcopy":4485,"Ġload":4486,"Ġturned":4487,"Ġinvolve":4488,"Ġmostly":4489,"Ġremoved":4490,"Ġ190":4491,"Ġfreedom":4492,"ĠAir":4493,"ĠRepublic":4494,"ĠMuseum":4495,"Ġterrit":4496,"Ġcris":4497,"rows":4498,"Ġbattle":4499,"Ġcounter":4500,"Ġupper":4501,"Ġexactly":4502,"ception":4503,"Ġreferred":4504,"standing":4505,"Ġprinciples":4506,"Ġtrou":4507,"Ġtrib":4508,"Ġclasses":4509,"ĠTur":4510,"Ġexperienced":4511,"Ġefficiency":4512,"Ġcomfort":4513,"Ġmentioned":4514,"Ġexpression":4515,"inter":4516,"Ġexpert":4517,"Ġconcerns":4518,"Ġconfirm":4519,"ishing":4520,"Ġradiation":4521,"ĠGovernment":4522,"uration":4523,"Ġradio":4524,"Ġ#":4525,"Ġmessage":4526,"Ġphysic":4527,"Ġadvantage":4528,"ĠTex":4529,"riculum":4530,"lick":4531,"Ġfine":4532,"ault":4533,"Ġcore":4534,"Ġconv":4535,"Ġtum":4536,"Ġelimin":4537,"Ġarm":4538,"ĠOnce":4539,"uable":4540,"Ġgrass":4541,"33":4542,"Ġleads":4543,"Ġnor":4544,"Ġsolid":4545,"Ġprocessing":4546,"Ġregarding":4547,"Ġannual":4548,"Ġacademic":4549,"Ġcontribute":4550,"ortunately":4551,"ĠPaul":4552,"ndrome":4553,"Ġhelped":4554,"Ġrelevant":4555,"Here":4556,"Ġvolume":4557,"rog":4558,"Ġmeeting":4559,"Ġrace":4560,"Ġpric":4561,"ĠTest":4562,"ping":4563,"ĠSam":4564,"Ġhelping":4565,"Ġbeautiful":4566,"Ġpal":4567,"Ġunf":4568,"rum":4569,"ĠGeorge":4570,"urt":4571,"Ġspot":4572,"Ġplatform":4573,"Ġconservation":4574,"Ġmeat":4575,"ĠOff":4576,"rep":4577,"Ġdie":4578,"ĠOrgan":4579,"Ġmist":4580,"Ġvictim":4581,"Ġexposed":4582,"ressed":4583,"Ġinfluen":4584,"Ġamounts":4585,"Ġimproved":4586,"Ġ29":4587,"Ġunits":4588,"Ġbelong":4589,"Ġlinked":4590,"Ġclick":4591,"Ġwhom":4592,"Ġdetermined":4593,"Ġsynt":4594,"ĠHIV":4595,"Ġgenes":4596,"Ġ186":4597,"Ġmanufacture":4598,"mal":4599,"Ġconsult":4600,"ĠIts":4601,"place":4602,"Ġheard":4603,"mark":4604,"ĠCourt":4605,"ĠOb":4606,"riage":4607,"Ġpollution":4608,"ĠGra":4609,"ategy":4610,"Ġlung":4611,"Res":4612,"oyal":4613,"Ġpreviously":4614,"Ġconflict":4615,"Ġinput":4616,"uing":4617,"ĠWhy":4618,"Ġreligion":4619,"och":4620,"Ġdram":4621,"Ġinterpret":4622,"ĠRober":4623,"clusion":4624,"rosc":4625,"Ġ90":4626,"78":4627,"ĠCath":4628,"Ġeggs":4629,"Ġgender":4630,"Ġstrategy":4631,"Ġfarmers":4632,"Ġinh":4633,"ĠFore":4634,"zing":4635,"Ġsem":4636,"ributed":4637,"Ġserved":4638,"orial":4639,"ya":4640,"cers":4641,"Ġallowing":4642,"Ġprepared":4643,"Ġinterested":4644,"mat":4645,"Ġdefic":4646,"Ġplease":4647,"Ġseek":4648,"ifying":4649,"Ġgrant":4650,"Ġfol":4651,"Ġreb":4652,"Con":4653,"stitution":4654,"onic":4655,"Ġbud":4656,"Ġkept":4657,"Ġpip":4658,"ĠProject":4659,"Ġawareness":4660,"Ġmotor":4661,"Ġvegetables":4662,"ĠDem":4663,"Ġwealth":4664,"Ġconcepts":4665,"Ġisland":4666,"ander":4667,"Ġengineering":4668,"ago":4669,"Ġreaction":4670,"Ġgod":4671,"with":4672,"Many":4673,"Ġmathemat":4674,"za":4675,"Ġdiagnosis":4676,"75":4677,"umn":4678,"ĠST":4679,"oking":4680,"Ġ...":4681,"Ġsort":4682,"Ġaid":4683,"Ġmel":4684,"Ġ70":4685,"Ġoperation":4686,"Ġsaying":4687,"uted":4688,"Im":4689,"ĠPhys":4690,"Ġdescribe":4691,"Ġarticles":4692,"Ġmath":4693,"ĠSun":4694,"ĠMal":4695,"Ġphase":4696,"Ġdatab":4697,"Ġowners":4698,"Ġround":4699,"ĠMount":4700,"iverse":4701,"Ġconcern":4702,"Ġnav":4703,"Ġcalc":4704,"ta":4705,"ĠMark":4706,"ĠIsland":4707,"Ġlanguages":4708,"Ġhearing":4709,"ĠRem":4710,"Ġmeant":4711,"lease":4712,"comes":4713,"road":4714,"ĠAsia":4715,"Ġspent":4716,"ĠLa":4717,"Our":4718,"Ġchemicals":4719,"Ġvot":4720,"Ġhour":4721,"Ġdecided":4722,"Ġpresc":4723,"board":4724,"rete":4725,"Ġdiscover":4726,"isher":4727,"Ġdiss":4728,"Ġcredit":4729,"ded":4730,"ĠMexico":4731,"Ġvolunt":4732,"acing":4733,"inate":4734,"ĠPort":4735,"Ġcoal":4736,"Ġinstitutions":4737,"Ġmotiv":4738,"Ġcontinues":4739,"Ġobvious":4740,"well":4741,"Ġatmosphere":4742,"Ġship":4743,"Ġhttps":4744,"Ġsquare":4745,"ĠService":4746,"That":4747,"Ġimpl":4748,"nic":4749,"alled":4750,"Ġtasks":4751,"Ġpun":4752,"Ġpages":4753,"Ġcast":4754,"ĠBel":4755,"Ġsignal":4756,"bi":4757,"Ġvulner":4758,"ams":4759,"Why":4760,"iling":4761,"aughter":4762,"Ġcompleted":4763,"ĠHen":4764,"wood":4765,"Ġinvent":4766,"36":4767,"Ġvital":4768,"Ġmanner":4769,"Ġpractical":4770,"Ġsouthern":4771,"ĠAI":4772,"onomic":4773,"Ġkill":4774,"ĠJews":4775,"Ġconver":4776,"Ġnorthern":4777,"Ġflex":4778,"Ġofficial":4779,"Ġpret":4780,"Ġclos":4781,"ĠNAS":4782,"itz":4783,"AD":4784,"CC":4785,"Ġcere":4786,"ĠRich":4787,"ball":4788,"rans":4789,"Ġshared":4790,"leg":4791,"ules":4792,"Ã¡":4793,"Ġsituations":4794,"Ġpieces":4795,"ĠStudents":4796,"ĠAD":4797,"Ġnotice":4798,"Ġreached":4799,"Ġpurposes":4800,"Although":4801,"ĠIsl":4802,"Ġhospital":4803,"Ġprocedure":4804,"Ġ2020":4805,"Ġfrequency":4806,"Ġsong":4807,"tes":4808,"ĠWhite":4809,"Ġgrade":4810,"Ġadvance":4811,"Ġconclud":4812,"Ġelectrical":4813,"rates":4814,"Ġideal":4815,"Ġmainly":4816,"Ġextensive":4817,"Ġyellow":4818,"Now":4819,"Ġhop":4820,"ormal":4821,"rence":4822,"kin":4823,"Ġ2004":4824,"100":4825,"Ġreduction":4826,"ĠHel":4827,"Ġrenew":4828,"Ġdefinition":4829,"Ġcharge":4830,"Ġtreatments":4831,"Ġsamples":4832,"Ġmort":4833,"vision":4834,"ĠEv":4835,"ĠTexas":4836,"Ġnutrients":4837,"Ġlooks":4838,"Ġappoint":4839,"Ġwet":4840,"Ġrevolution":4841,"Ġtoxic":4842,"Ġsecret":4843,"Ġformation":4844,"Ġsupported":4845,"Ġrecorded":4846,"Ġprofessor":4847,"New":4848,"ria":4849,"Ġwest":4850,"astern":4851,"Äģ":4852,"ĠSub":4853,"ĠBer":4854,"des":4855,"Ġintended":4856,"ĠEvery":4857,"which":4858,"akers":4859,"Ġcorresp":4860,"Ġproposed":4861,"ancing":4862,"ĠMars":4863,"eline":4864,"Ġdrinking":4865,"Cl":4866,"berg":4867,"Ġconsequences":4868,"38":4869,"ishes":4870,"Ġfib":4871,"Ġecosystem":4872,"Ġfocused":4873,"Ġprimarily":4874,"otic":4875,"espite":4876,"Ġlib":4877,"Ġmaster":4878,"eters":4879,"OT":4880,"itors":4881,"Ġvaccine":4882,"Ġbegins":4883,"rapy":4884,"Ġauthority":4885,"Ġstorm":4886,"acific":4887,"Ġsector":4888,"Ġbrother":4889,"Ġdigest":4890,"Ġheight":4891,"Ġpark":4892,"ĠDi":4893,"alle":4894,"Ġban":4895,"ĠAcad":4896,"osite":4897,"ĠSer":4898,"Ġsufficient":4899,"Ġlic":4900,"Ġkeeping":4901,"ĠMiss":4902,"rations":4903,"ears":4904,"Ġindicate":4905,"ĠJe":4906,"atric":4907,"Ġyouth":4908,"Ġcombined":4909,"Ġdro":4910,"ounced":4911,"Ġlesson":4912,"ulating":4913,"Ġbird":4914,"Ġjobs":4915,"Ġimpacts":4916,"ĠBas":4917,"Ġcareer":4918,"ample":4919,"Ġfinally":4920,"'ll":4921,"aker":4922,"Ġoffered":4923,"Ġmuscles":4924,"ek":4925,"Ġlov":4926,"Ġwonder":4927,"Ġphenomen":4928,"ĠMac":4929,"lig":4930,"Ġstraight":4931,"Ġliquid":4932,"ags":4933,"AP":4934,"Ġcoord":4935,"Ġther":4936,"Ġstation":4937,"Ġtechnical":4938,"Ġfacts":4939,"ĠJer":4940,"ĠLou":4941,"From":4942,"Ġ35":4943,"oper":4944,"Ġtaught":4945,"Ġrecy":4946,"Ġhit":4947,"acters":4948,"Ġmoist":4949,"Ġsubjects":4950,"Ġblog":4951,"aturally":4952,"Ġoperating":4953,"rastructure":4954,"ixt":4955,"going":4956,"ĠCentral":4957,"Ġmorning":4958,"Ġidentity":4959,"Ġfort":4960,"Ġmonitoring":4961,"Ġspecifically":4962,"Ġbright":4963,"Ġemergency":4964,"Ġflowers":4965,"Ġfoss":4966,"ĠÃ":4967,"Ġcenturies":4968,"Ġfaster":4969,"anch":4970,"Ġexcellent":4971,"roke":4972,"Ġattacks":4973,"Ġspend":4974,"ĠBritain":4975,"vis":4976,"Ġwaters":4977,"Ġoral":4978,"Ġcollected":4979,"ĠThomas":4980,"ĠFurther":4981,"Ġgar":4982,"rier":4983,"Ġforced":4984,"gra":4985,"Ġremained":4986,"Ġresponsibility":4987,"rich":4988,"eria":4989,"Ġkinds":4990,"ĠDise":4991,"Ġdoll":4992,"ĠOld":4993,"Ġextent":4994,"Ġshowing":4995,"Ġshar":4996,"iated":4997,"tion":4998,"ossible":4999,"ĠVirgin":5000,"gl":5001,"ĠEnergy":5002,"ĠMart":5003,"ĠMr":5004,"ificial":5005,"Ġsurrounding":5006,"ĠNASA":5007,"ĠArab":5008,"Ġcertainly":5009,"Ġaccurate":5010,"Ġadvice":5011,"inger":5012,"Ġoccurred":5013,"Ġlargely":5014,"Ġexistence":5015,"ework":5016,"olute":5017,"ĠCivil":5018,"CO":5019,"ĠSen":5020,"ĠHol":5021,"Ġ2003":5022,"ĠâĢ¦":5023,"ey":5024,"Most":5025,"Ġbrief":5026,"Ġvast":5027,"ipped":5028,"Ġhyper":5029,"ĠCle":5030,"Ġletters":5031,"arrow":5032,"Ġenhance":5033,"Ġresist":5034,"Ġroll":5035,"Ġcert":5036,"istan":5037,"ado":5038,"osen":5039,"Ġsalt":5040,"Ġrefers":5041,"Ġparticles":5042,"Ġvehicle":5043,"Ġarmy":5044,"Ġaffects":5045,"ĠSal":5046,"ras":5047,"Ġclim":5048,"Ġhaz":5049,"ĠBen":5050,"nel":5051,"Ġkn":5052,"Ġraised":5053,"Ġperiods":5054,"ague":5055,"Ġcognitive":5056,"being":5057,"Ġperman":5058,"No":5059,"Ġfelt":5060,"inent":5061,"ĠClass":5062,"ditionally":5063,"ĠDist":5064,"othing":5065,"Ġcomponent":5066,"34":5067,"Ġvaluable":5068,"Ġtips":5069,"ĠMuslim":5070,"Ġexternal":5071,"Ġdespite":5072,"Ġvoice":5073,"Ġsche":5074,"west":5075,"itness":5076,"ĠMet":5077,"RO":5078,"Ġquar":5079,"EL":5080,"anges":5081,"Ġeast":5082,"Ġsettle":5083,"Ġagricultural":5084,"Ġmetab":5085,"ĠData":5086,"enses":5087,"Ġpotentially":5088,"ĠSpace":5089,"Ġhelpful":5090,"ĠAtl":5091,"down":5092,"Ġgoods":5093,"inn":5094,"Ab":5095,"col":5096,"Ġsounds":5097,"Ġperspective":5098,"Ġnerv":5099,"Ġdetailed":5100,"Ġstone":5101,"].":5102,"Ġfamiliar":5103,"Ġcomment":5104,"Ġincreasingly":5105,"athy":5106,"umin":5107,"ĠFre":5108,"US":5109,"Ġgrand":5110,"ĠCam":5111,"Ġdomestic":5112,"ĠMedicine":5113,"Ġbill":5114,"ĠNews":5115,"Ġnations":5116,"ĠLearning":5117,"Ġfacilities":5118,"tenance":5119,"Ġ*":5120,"Ġmaximum":5121,"Ġdiam":5122,"Ġhealthcare":5123,"Ġwife":5124,"Ġbusinesses":5125,"Ġfruits":5126,"ĠBay":5127,"roid":5128,"ĠDirect":5129,"Ġnit":5130,"Ġvent":5131,"Ġmotion":5132,"Pl":5133,"Ġcharacters":5134,"ĠMedical":5135,"ĠIr":5136,"ails":5137,"Ġsyn":5138,"omy":5139,"verty":5140,"osa":5141,"Ġdouble":5142,"what":5143,"Ġaren":5144,"point":5145,"Ġ1990":5146,"Ġmeasured":5147,"Ġpoverty":5148,"igenous":5149,"uls":5150,"Ġonto":5151,"Ġsatis":5152,"ĠSom":5153,"Ġthoughts":5154,"oughly":5155,"Ġleader":5156,"ĠLatin":5157,"Ġliver":5158,"ĠFranc":5159,"Ġplayed":5160,"pen":5161,"Ġcrops":5162,"roc":5163,"Ġsmart":5164,"Ġinvestment":5165,"ĠTechnology":5166,"olars":5167,"aks":5168,"99":5169,"Ġlinks":5170,"ĠDef":5171,"ĠArmy":5172,"Ġexplains":5173,"ĠLife":5174,"Ġdepends":5175,"Ġotherwise":5176,"Ġfundamental":5177,"ĠCommission":5178,"Ġvalid":5179,"iced":5180,"ht":5181,"field":5182,"'ve":5183,"Ġtopics":5184,"Ġslightly":5185,"Ġwel":5186,"oo":5187,"Ġtested":5188,"resents":5189,"Ġfluid":5190,"Ġmere":5191,"Ġinterests":5192,"Ġproteins":5193,"ĠBoth":5194,"Ġpaint":5195,"inding":5196,"name":5197,"rian":5198,"Ġharvest":5199,"Ġthin":5200,"ĠSecond":5201,"Another":5202,"Ġtypical":5203,"Ġju":5204,"unk":5205,"Ġroots":5206,"Ġsin":5207,"Ġcontrolled":5208,"48":5209,"ĠBudd":5210,"Ġoutcomes":5211,"Ġsnow":5212,"Ġsuggested":5213,"Ġbiological":5214,"Americ":5215,"Ġsend":5216,"ensus":5217,"Ġcrisis":5218,"Ġpil":5219,"Ġcontinuous":5220,"Ġhabitat":5221,"Ġdepth":5222,"Ġsubstant":5223,"Ġ2001":5224,"stood":5225,"ompl":5226,"Ġinstrument":5227,"Ġexplan":5228,"active":5229,"Ġfeelings":5230,"Ġ2018":5231,"Ġgovernments":5232,"Ġplaying":5233,"Ġimmun":5234,"BC":5235,"Ġphone":5236,"Ġexplained":5237,"gal":5238,"Ġinstruction":5239,"inant":5240,"itage":5241,"band":5242,"Ġlose":5243,"More":5244,"Ġdeliver":5245,"Ġbow":5246,"Ġrural":5247,"Ġfloor":5248,"Ġsurpris":5249,"ĠBible":5250,"Ġgirls":5251,"Ġgreatest":5252,"Ġpolice":5253,"Ġtro":5254,"Ġtrial":5255,"Ġfif":5256,"RI":5257,"pat":5258,"Ġregularly":5259,"ĠAN":5260,"Ġcurriculum":5261,"Ġflat":5262,"Ġsubsequ":5263,"Ġlik":5264,"Ġimmig":5265,"Ġproport":5266,"ael":5267,"Ġdivided":5268,"Ġstem":5269,"oster":5270,"Ġgrown":5271,"ĠFoundation":5272,"ĠBur":5273,"ville":5274,"ĠQue":5275,"Ġrequest":5276,"Ġstudied":5277,"hi":5278,"Ġsecure":5279,"Ġfollows":5280,"Ġelev":5281,"Ġabuse":5282,"gment":5283,"Ġkil":5284,"ĠElect":5285,"Ġapproaches":5286,"lar":5287,"Ġchann":5288,"ĠUsing":5289,"37":5290,"Ġpersons":5291,"Ġinterview":5292,"celer":5293,"asure":5294,"Ġneut":5295,"ĠMass":5296,"Ġdisapp":5297,"Ġemployees":5298,"cript":5299,"Ġcardi":5300,"Ġapparent":5301,"Ġwalls":5302,"Ġpregnancy":5303,"ĠToday":5304,"Ġprices":5305,"Ġconvent":5306,"hips":5307,"Ġrail":5308,"that":5309,"ĠMil":5310,"Ġmedications":5311,"Ġrepresents":5312,"Ġpray":5313,"ĠTwo":5314,"Ġhappened":5315,"Ġstars":5316,"ĠFlor":5317,"ĠPacific":5318,"Ġspiritual":5319,"Ġwear":5320,"utive":5321,"Ġobtained":5322,"Ġkm":5323,"Ġspl":5324,"Ġtrain":5325,"Ġofficials":5326,"ĠSou":5327,"Ġinflammation":5328,"39":5329,"Ġconsists":5330,"Ġappearance":5331,"ION":5332,"ĠBook":5333,"Ġclosely":5334,"ĠJud":5335,"Ġprotected":5336,"Ġinternet":5337,"Ġdecrease":5338,"Ġrapidly":5339,"Ġsen":5340,"Ġrecognized":5341,"win":5342,"ĠLake":5343,"MS":5344,"van":5345,"Ġinfrastructure":5346,"Ġfiles":5347,"osc":5348,"rolog":5349,"Ġcontaining":5350,"Ġpu":5351,"Ġdial":5352,"Ġwestern":5353,"ĠTreat":5354,"Ġadding":5355,"li":5356,"Ġresidents":5357,"abil":5358,"Ġcolors":5359,"Ġneighbor":5360,"Ġlooked":5361,"ooth":5362,"chers":5363,"Ġhundreds":5364,"Ġsuffering":5365,"Ġlatest":5366,"Ġdu":5367,"fall":5368,"Ġconcerned":5369,"Ġ2002":5370,"Ġpig":5371,"Ġminimum":5372,"inations":5373,"Ġprocedures":5374,"Ġconcentration":5375,"Ġaccompl":5376,"umber":5377,"atever":5378,"Ġportion":5379,"zy":5380,"oviet":5381,"isp":5382,"onomy":5383,"ĠOut":5384,"Ġdiversity":5385,"Ġvisible":5386,"ĠRobert":5387,"icks":5388,"Ġintelligence":5389,"Ġingred":5390,"ĠSmith":5391,"Do":5392,"Ġfirm":5393,"Ġreturned":5394,"Ġinches":5395,"Ġextract":5396,"ĠBC":5397,"Ġconscious":5398,"Ġdriving":5399,"Ġrein":5400,"Ġdut":5401,"ascular":5402,"Ġfle":5403,"ĠKore":5404,"Ġdiscussed":5405,"ĠJose":5406,"free":5407,"teries":5408,"ĠAnother":5409,"Ġtried":5410,"Ġdeaths":5411,"Ġjustice":5412,"Ġstret":5413,"ĠWind":5414,"Ġselected":5415,"Ġ2019":5416,"ĠSupp":5417,"Ġmedium":5418,"44":5419,"Ġrecovery":5420,"Ġwire":5421,"ĠInformation":5422,"Ġleaving":5423,"Ġminim":5424,"Ġcircumst":5425,"Ġstock":5426,"Ġsyndrome":5427,"Ġexpensive":5428,"orith":5429,"ĠCD":5430,"ĠInstead":5431,"Ġrand":5432,"Ġprison":5433,"Ġdiverse":5434,"65":5435,"Ġsed":5436,"ĠRussian":5437,"TS":5438,"Ġweap":5439,"Ġappeared":5440,"Ġrecognize":5441,"Ġmovements":5442,"Ġclaims":5443,"ĠGoogle":5444,"ĠMake":5445,"ĠMont":5446,"ĠStand":5447,"ĠLand":5448,"Ġnaturally":5449,"Ġfrag":5450,"ĠNor":5451,"eck":5452,"Ġadvoc":5453,"Ġmobile":5454,"?âĢĿ":5455,"Ġpaid":5456,"mp":5457,"Ġlessons":5458,"Ġpump":5459,"bing":5460,"Ġcontem":5461,"ĠWomen":5462,"cling":5463,"Ġdirector":5464,"Ġfacilit":5465,"oral":5466,"ĠCarol":5467,"Ġcomprehensive":5468,"Ġassemb":5469,"Ġlifest":5470,"95":5471,"âĢĻ.":5472,"ĠSl":5473,"Ġparam":5474,"Ġalt":5475,"Ġinfected":5476,"ĠCatholic":5477,"state":5478,"ĠPsych":5479,"Ġagriculture":5480,"Ġsensitive":5481,"Ġrandom":5482,"Ġband":5483,"ario":5484,"burg":5485,"ĠMiddle":5486,"ellect":5487,"Ġsan":5488,"Ġstated":5489,"cest":5490,"lers":5491,"Ġfertil":5492,"Ġviews":5493,"Ġages":5494,"Ġcorrespond":5495,"Ġsides":5496,"Ġincl":5497,"Ġreform":5498,"Ġallerg":5499,"Ġchief":5500,"Ġpref":5501,"rid":5502,"Ġsatell":5503,"ĠSea":5504,"Ind":5505,"Ġfunding":5506,"Ġprinciple":5507,"Ġdental":5508,"indu":5509,"Ġadequ":5510,"Ġimproving":5511,"Ġlaun":5512,"Ġknew":5513,"Ġod":5514,"Ġshel":5515,"Ġjourney":5516,"Ġsuitable":5517,"ĠNav":5518,"Ġprevention":5519,"Ġmit":5520,"Ġraise":5521,"ĠEngine":5522,"ING":5523,"ĠRussia":5524,"Ġdistingu":5525,"Ġformat":5526,"Ġcouple":5527,"Ġhunt":5528,"32":5529,"Ġsets":5530,"Ġhorse":5531,"ibilities":5532,"Ġsick":5533,"ĠSaf":5534,"Ġdiscovery":5535,"alse":5536,"iled":5537,"ĠHam":5538,"ĠControl":5539,"Ġgun":5540,"racy":5541,"Ġmoral":5542,"Ġmillions":5543,"vironments":5544,"Ġmanufacturing":5545,"ĠFam":5546,"ĠHenry":5547,"Ġtitle":5548,"Ġplays":5549,"ĠRef":5550,"Ġprecise":5551,"ÃŃ":5552,"anes":5553,"flow":5554,"ĠLike":5555,"HO":5556,"ulin":5557,"During":5558,"stream":5559,"anguage":5560,"ĠUp":5561,"ypes":5562,"Ġcoff":5563,"olve":5564,"ĠSuch":5565,"De":5566,"ĠTem":5567,"long":5568,"Ġvehicles":5569,"Ġcapable":5570,"Ġroutine":5571,"DF":5572,"Ġargument":5573,"Ġlandscape":5574,"Ġexchange":5575,"ĠCharles":5576,"Ġdocuments":5577,"ĠSoviet":5578,"ĠDisc":5579,"pping":5580,"Ġstages":5581,"Ġ45":5582,"ĠPC":5583,"Ġconsid":5584,"rem":5585,"Ġintake":5586,"Ġsubstance":5587,"ota":5588,"mas":5589,"Ġgenerate":5590,"Ġsoldiers":5591,"ĠEnvironmental":5592,"Ġbehaviour":5593,"ava":5594,"abric":5595,"rants":5596,"Ġwors":5597,"Ġtraffic":5598,"agers":5599,"Ġtouch":5600,"Te":5601,"ĠMem":5602,"Ġnetworks":5603,"abits":5604,"comp":5605,"Ġtrad":5606,"exp":5607,"Ġrub":5608,"ĠDel":5609,"Ġsuffer":5610,"ĠStudies":5611,"ĠRights":5612,"plicated":5613,"ĠManagement":5614,"Ġtalking":5615,"Ġprofessionals":5616,"Ġcreative":5617,"Ġmaintenance":5618,"Ġengage":5619,"VID":5620,"Ġintroduction":5621,"Ġble":5622,"Us":5623,"Ġsurvival":5624,"Ġapart":5625,"inet":5626,"uke":5627,"Ġworldwide":5628,"ĠSte":5629,"dden":5630,"Ġparties":5631,"idden":5632,"Ġrecip":5633,"Ġentirely":5634,"ĠWell":5635,"ĠEmp":5636,"Ġaccomp":5637,"asp":5638,"ocratic":5639,"Ġproducing":5640,"Ġabsolute":5641,"Ġinterf":5642,"Dr":5643,"Ġnurs":5644,"ĠLouis":5645,"Ġmyth":5646,"ĠWild":5647,"ĠNature":5648,"ato":5649,"Ġapprec":5650,"Ġ188":5651,"Ġcorpor":5652,"ĠCompany":5653,"Ġharmful":5654,"Ġguidelines":5655,"Ġmassive":5656,"Ġnarr":5657,"osal":5658,"Ġpure":5659,"Ġbeneficial":5660,"Ġpossess":5661,"Ġimpossible":5662,"Ġprepare":5663,"Ġsecondary":5664,"Ġleadership":5665,"Ġcalls":5666,"Ġdedic":5667,"esity":5668,"olf":5669,"Ġchain":5670,"Ġwave":5671,"Ġflight":5672,"Ġcloud":5673,"Ġera":5674,"erals":5675,"uilding":5676,"Ġprem":5677,"Ġpoet":5678,"Ġcomputers":5679,"Ġtun":5680,"Ġbudget":5681,"Ġmedication":5682,"olester":5683,"Ġoptim":5684,"Ġbrown":5685,"Ġwildlife":5686,"Ġinject":5687,"iology":5688,"Gen":5689,"Ġunlike":5690,"Ġdiscrim":5691,"ctic":5692,".|":5693,"Ġgather":5694,"Ġrevealed":5695,"rus":5696,"othe":5697,"Ġtail":5698,"Ġunderstood":5699,"ĠLibrary":5700,"Ġspeaking":5701,"Ġgall":5702,"Ġdecline":5703,"ĠInf":5704,"Ġsupplement":5705,"Ġselection":5706,"ka":5707,"Ġphr":5708,"Ġlibrary":5709,"Ġclosed":5710,"ĠHistor":5711,"ĠPost":5712,"Ġcultiv":5713,"Sc":5714,"bert":5715,"Ġdream":5716,"Ġbattery":5717,"ĠBet":5718,"Ġrestrict":5719,"Ġlabel":5720,"organ":5721,"Ġsudden":5722,"omach":5723,"cules":5724,"ca":5725,"Ġstick":5726,"Ġcars":5727,"attle":5728,"Ġmoon":5729,"ĠPower":5730,"Ġtransition":5731,"ropical":5732,"Ġreaders":5733,"Ġinjuries":5734,"Ġnarrow":5735,"Ġfill":5736,"rors":5737,"Ġdatabase":5738,"Ġdescribes":5739,"Ġleaf":5740,"Ġopinion":5741,"ĠOx":5742,"Ġregional":5743,"Ġnormally":5744,"ĠWil":5745,"Ġachieved":5746,"Ġantibiot":5747,"76":5748,"Ġtoler":5749,"31":5750,"ada":5751,"ifies":5752,"CS":5753,"Ġchapter":5754,"46":5755,"Ġenvironments":5756,"Ġamb":5757,"Ġalgorith":5758,"Ġformal":5759,"Ġexperiments":5760,"Ġfigures":5761,"ĠKnow":5762,"lements":5763,"spec":5764,"Ġmamm":5765,"Ġwarming":5766,"Ġchoices":5767,"ona":5768,"agues":5769,"Ġpictures":5770,"Ġstored":5771,"ĠDiv":5772,"Ġforests":5773,"Ġaccepted":5774,"Ġrecon":5775,"BN":5776,"olesterol":5777,"Ġ<":5778,"alian":5779,"apping":5780,"ĠMicro":5781,"ĠSum":5782,"Ġpossibly":5783,"ĠVirginia":5784,"Other":5785,"Ġpossibility":5786,"Ġsteel":5787,"Ġabund":5788,"Ġvillage":5789,"ĠGroup":5790,"Ġtal":5791,"alysis":5792,"198":5793,"ĠKen":5794,"Ġbones":5795,"anged":5796,"Ġadopted":5797,"Ġindex":5798,"oto":5799,"ye":5800,"Ġacts":5801,"Ġsurf":5802,"ĠBro":5803,"ĠCare":5804,"Ġconsistent":5805,"ston":5806,"Ġdistrict":5807,"inder":5808,"Ġsports":5809,"500":5810,"ĠScient":5811,"ĠÎ":5812,"liam":5813,"Ġworse":5814,"Re":5815,"Ġwindow":5816,"Ġsweet":5817,"war":5818,"ĠFederal":5819,"Ġlisted":5820,"Ġmarriage":5821,"ait":5822,"Ġcandid":5823,"Ġnan":5824,"Ġsolve":5825,"Ġaqu":5826,"reed":5827,"Ġoriginally":5828,"Ġstarts":5829,"Ġmountain":5830,"Ġcreates":5831,"normal":5832,"Ġaw":5833,"Ġpretty":5834,"Ġhouses":5835,"hemical":5836,"ĠAp":5837,"Ġcatch":5838,"Ġaircraft":5839,"aser":5840,"Ġcourses":5841,"Ġlatter":5842,"rot":5843,"My":5844,"prise":5845,"osph":5846,"Ġflav":5847,"Ġafford":5848,"la":5849,"Ġsuc":5850,"obe":5851,"Ġgenerated":5852,"Ġassistance":5853,"Ġopened":5854,"Ġsurvive":5855,"Ġtow":5856,"Ġremote":5857,"Ġemotions":5858,"Ġdust":5859,"ashion":5860,"55":5861,"ĠOffice":5862,"Ġancest":5863,"erent":5864,"Ġ31":5865,"struct":5866,"Ġimper":5867,"ĠMo":5868,"Ġarms":5869,"Ġskill":5870,"ĠFlorida":5871,"Ġrepeated":5872,"Ġenable":5873,"asive":5874,"mic":5875,"Ġplate":5876,"Ġhappy":5877,"imer":5878,"ki":5879,"Ġaccounts":5880,"Ġtransmission":5881,"ester":5882,"Ġstruggle":5883,"Ġagencies":5884,"ums":5885,"Ġanswers":5886,"Ġadministration":5887,"Ġuniverse":5888,"oted":5889,"Ġboost":5890,"ĠThrough":5891,"Ġfoundation":5892,"ĠAlex":5893,"ĠLabor":5894,"Ġaer":5895,"ĠTHE":5896,"ĠId":5897,"inating":5898,"Ġmarine":5899,"Ġunless":5900,"ĠIN":5901,"irus":5902,"ĠConstitution":5903,"Go":5904,"Ġremaining":5905,"Ġelectronic":5906,"Ġtiny":5907,"Ġfell":5908,"ĠPers":5909,"acts":5910,"ĠAtt":5911,"Ġerror":5912,"orter":5913,"ĠGet":5914,"Ġacceler":5915,"ĠTer":5916,"Ġmuseum":5917,"Ġdoctors":5918,"add":5919,"ĠGood":5920,"Ġfilled":5921,"iform":5922,"last":5923,"eper":5924,"Ġcircumstances":5925,"Ġedge":5926,"Ġ1999":5927,"Ġobtain":5928,"ĠProv":5929,"Ġwaves":5930,"47":5931,"Ġchart":5932,"ĠCommon":5933,"Ġagreement":5934,"ĠProfessor":5935,"IL":5936,"Ġdoor":5937,"Ġextended":5938,"Ġframework":5939,"liament":5940,"Ġtwice":5941,"Ġequival":5942,"mary":5943,"Ġsell":5944,"hist":5945,"ĠAbout":5946,"Ġthor":5947,"ĠCommit":5948,"Ġtells":5949,"aria":5950,"Ġlocations":5951,"born":5952,"Ġintervention":5953,"Ġtruly":5954,"icians":5955,"orrow":5956,"Ġsuccessfully":5957,"Ġexpressed":5958,"tage":5959,"ansion":5960,"Ġdiscipl":5961,"Ġregulations":5962,"Ġperce":5963,"gent":5964,"Ġseeing":5965,"ects":5966,"Se":5967,"Ġlands":5968,"ĠUSA":5969,"Ġwants":5970,"Ġscholars":5971,"Ġkit":5972,"Ġfasc":5973,"throp":5974,"Ġindeed":5975,"Ġlifestyle":5976,"Ġdepos":5977,"ua":5978,"Ġinsects":5979,"ĠAny":5980,".âĢĻ":5981,"riting":5982,"Ġunknown":5983,"anda":5984,"cel":5985,"Ġintellect":5986,"Ġdecade":5987,"no":5988,"Ġslowly":5989,"ĠColumb":5990,"Ġcomposition":5991,"Ġmur":5992,"ĠLeg":5993,"ĠReview":5994,"ĠCanadian":5995,"Ġderived":5996,"Ġresponses":5997,"Ġhighlight":5998,"Ġstudying":5999,"under":6000,"ĠFe":6001,"Ġopening":6002,"Ġoutl":6003,"ĠOF":6004,"ogue":6005,"Ġax":6006,"ini":6007,"Ġ1980":6008,"ĠNations":6009,"Ġtraum":6010,"Cont":6011,"nam":6012,"Ġsequence":6013,"Ġchildhood":6014,"Ġbroken":6015,"igation":6016,"Ġcultures":6017,"ĠExpl":6018,"Ġproduces":6019,"Ġaudience":6020,"Ġsignals":6021,"ny":6022,"icide":6023,"ĠDisease":6024,"Ġcarefully":6025,"Ġreject":6026,"zen":6027,"UR":6028,"using":6029,"Ġhandle":6030,"Read":6031,"Ġpull":6032,"Ġcrow":6033,"arant":6034,"ĠParis":6035,"Ġshell":6036,"Ġrespir":6037,"ĠBre":6038,"ĠGlobal":6039,"Ġprotocol":6040,"Ġdecide":6041,"Ġdifficulty":6042,"Ġlots":6043,"Ġfailed":6044,"Ġgreatly":6045,"ĠThose":6046,"lets":6047,"hma":6048,"Ġaf":6049,"luding":6050,"ache":6051,"ifications":6052,"ushing":6053,"ĠJoseph":6054,"Ġuns":6055,"Ġbio":6056,"Ġultimately":6057,"body":6058,"Ġmechanism":6059,"Ġgal":6060,"Ġfossil":6061,"Ġcolour":6062,"Ġsod":6063,"Ġraw":6064,"Ġmolecules":6065,"En":6066,"Ġdensity":6067,"ivery":6068,"49":6069,"Ġstomach":6070,"Ġconsumers":6071,"Ġfiber":6072,"âĢĻ,":6073,"Ġsimpl":6074,"Ġdedicated":6075,"Ġbear":6076,"77":6077,"ĠDesign":6078,"Ġauthorities":6079,"Ġcorn":6080,"Ġfixed":6081,"CT":6082,"Ġyield":6083,"edu":6084,"Not":6085,"ctive":6086,"Ġwitness":6087,"Ġimmediate":6088,"ront":6089,"Ġmarked":6090,"Ġunp":6091,"Ġhabits":6092,"ĠYet":6093,"Ġinteraction":6094,"wing":6095,"Ġratio":6096,"Ġmulti":6097,"Ġ500":6098,"vity":6099,"Ġindicates":6100,"Ġpreval":6101,"Ġmaintaining":6102,"Ġcoffee":6103,"ribed":6104,"Bl":6105,"Ġvolunte":6106,"then":6107,"EP":6108,"Ġlaboratory":6109,"ĠLong":6110,"Ġremark":6111,"ĠTor":6112,"ĠPeter":6113,"Ġfabric":6114,"Ġcritic":6115,"Ġshift":6116,"ĠAnn":6117,"Ġimplementation":6118,"Ġopposite":6119,"ĠFrank":6120,"Can":6121,"Ġdoubt":6122,"hether":6123,"inction":6124,"Ġmixed":6125,"Ġbrand":6126,"Ġwish":6127,"inking":6128,"Ġsky":6129,"inity":6130,"Ġcutting":6131,"Ġfly":6132,"Ġmanaged":6133,"Ġorganized":6134,"Ġsupporting":6135,"Ġinstitution":6136,"ĠGold":6137,"Ġbreathing":6138,"Ġmac":6139,"Stud":6140,"Ġcircuit":6141,"Ġwalking":6142,"Ġacknow":6143,"Ġcommunicate":6144,"ĠMa":6145,"ĠHaw":6146,"rating":6147,"ocracy":6148,"but":6149,"Ġsharing":6150,"Ġacids":6151,"itudes":6152,"izer":6153,"Since":6154,"Ġtroops":6155,"ĠIll":6156,"level":6157,"Ġpermanent":6158,"Ġvessels":6159,"Ġconventional":6160,"ĠOnly":6161,"Ġethnic":6162,"ĠLab":6163,"ĠVict":6164,"Ġdownload":6165,"Ġhus":6166,"Ġconclusion":6167,"Ġmachines":6168,"Ġregul":6169,"Ġunderlying":6170,"Ġsight":6171,"hand":6172,"kes":6173,"Ġdent":6174,"Ġrelax":6175,"Ġ300":6176,"umes":6177,"itative":6178,"stone":6179,"....":6180,"ioxide":6181,"ĠRad":6182,"Ġreplaced":6183,"Ġlimits":6184,"ĠExper":6185,"Ġmild":6186,"ĠStreet":6187,"Ġcart":6188,"ĠAustralian":6189,"Ġalle":6190,"zil":6191,"Ġdin":6192,"Ġaccum":6193,"gu":6194,"ĠChic":6195,"Ġpersist":6196,"Ġrepresented":6197,"wo":6198,"ena":6199,"Ġ1970":6200,"Ġinner":6201,"ints":6202,"Ġcalcium":6203,"Ġartificial":6204,"ĠDan":6205,"gans":6206,"Ġdescription":6207,"Figure":6208,"Ġattend":6209,"Ġcloser":6210,"oned":6211,"Ã¼":6212,"ĠReport":6213,"riers":6214,"ĠIP":6215,"Ġdesire":6216,"Ġnewsp":6217,"Ġpron":6218,"Ġfeeding":6219,"Ġunable":6220,"Ġtea":6221,"Ġtransportation":6222,"Ġfewer":6223,"Ġdaughter":6224,"stein":6225,"Ġsentence":6226,"Ġpurchase":6227,"tering":6228,"âĢĺ":6229,"Ġstands":6230,"agon":6231,"Ġdebate":6232,"Ġourselves":6233,"Ġbehaviors":6234,"Ġelectron":6235,"Ġroof":6236,"Ġcholesterol":6237,"Ġnerve":6238,"Ġnecessarily":6239,"Ġ1998":6240,"from":6241,"ĠClin":6242,"Ġchosen":6243,"Ġprincip":6244,"rine":6245,"ipping":6246,"ml":6247,"abul":6248,"ĠSouthern":6249,"Ġ>":6250,"ĠSk":6251,"Ġnoise":6252,"Ġinhib":6253,"Ġnine":6254,"Ġsupports":6255,"ĠStat":6256,"ĠCOVID":6257,"Ġconfidence":6258,"ĠNatural":6259,"Ġbiggest":6260,"See":6261,"Ġthousand":6262,"ĠBank":6263,"Ġarchitecture":6264,"Ġyounger":6265,"ĠRome":6266,"ĠAdd":6267,"Ġreserv":6268,"zed":6269,"ĠExp":6270,"Ġlisten":6271,"aped":6272,"phone":6273,"ĠStep":6274,"Ġcomparison":6275,"Pe":6276,"Ġimprovement":6277,"Ġvoc":6278,"ĠCult":6279,"Ġwww":6280,"ella":6281,"ĠKh":6282,"Ġveter":6283,"ĠMad":6284,"Ġ189":6285,"Ġmechanisms":6286,"Ġoverl":6287,"Let":6288,"Ġcontamin":6289,"Ġtaste":6290,"word":6291,"Ġfeedback":6292,"fish":6293,"Ġgone":6294,"azing":6295,"Ġsmoking":6296,"ora":6297,"Ġpup":6298,"usal":6299,"Ġrecognition":6300,"orous":6301,"ymph":6302,"ribe":6303,"fortunately":6304,"Ġdestroyed":6305,"Ġends":6306,"ĠHall":6307,"Ġcats":6308,"Ġchallenging":6309,"Ġgluc":6310,"reland":6311,"Ġneck":6312,"atal":6313,"Ġmarried":6314,"Ġvirtual":6315,"tra":6316,"Ġtank":6317,"earchers":6318,"ĠOcean":6319,"Ġhousing":6320,"Ġcolleagues":6321,"aud":6322,"Ġcompounds":6323,"Ġreader":6324,"Ġhydrogen":6325,"Ġmagnetic":6326,"Ġsupplies":6327,"ĠDet":6328,"Ġserver":6329,"Ġconcrete":6330,"Ġvulnerable":6331,"Ġunus":6332,"hop":6333,"Ġarrived":6334,"Ġphilosophy":6335,"Ġinstructions":6336,"Ġcustomers":6337,"ĠCommittee":6338,"Ġevaluation":6339,"Ġconstitution":6340,"elled":6341,"Ġrid":6342,"rd":6343,"stract":6344,"ĠSol":6345,"ĠVis":6346,"ĠForm":6347,"Ġwriter":6348,"Ġstanding":6349,"irty":6350,"Ġfighting":6351,"Ġregist":6352,"sey":6353,"Ġexists":6354,"Ġfalse":6355,"Ġoccasion":6356,"Ġjoin":6357,"ĠExt":6358,"LE":6359,"cher":6360,"bour":6361,"Ġdrawing":6362,"ups":6363,"Ġpool":6364,"Ġconnections":6365,"ĠRevolution":6366,"Ġparticipate":6367,"Ġuniversity":6368,"inson":6369,"itan":6370,"ĠAdminist":6371,"ocy":6372,"arn":6373,"ifest":6374,"ĠPract":6375,"Ġprogramming":6376,"Ġgreenhouse":6377,"Ġeld":6378,"Ġcos":6379,"Ġepid":6380,"ĠPM":6381,"Ġparalle":6382,"Ġindustries":6383,"Ġhero":6384,"Ġtrained":6385,"Ġaccident":6386,"Ġphotograph":6387,"icious":6388,"orses":6389,"Ġthy":6390,"Ġdioxide":6391,"ĠISBN":6392,"IP":6393,"Ġclust":6394,"Ġprompt":6395,"yles":6396,"Ġfounded":6397,"Ġsucceed":6398,"Ġpercentage":6399,"Ġbread":6400,"heast":6401,"uts":6402,"Ġagency":6403,"Ġlies":6404,"ĠCamp":6405,"Ġattached":6406,"ritis":6407,"Ġreactions":6408,"ita":6409,"Ġahead":6410,"Ġzone":6411,"Ġstable":6412,"itt":6413,"ett":6414,"Ġwhereas":6415,"Ġcamera":6416,"Ġfract":6417,"irds":6418,"ĠItaly":6419,"bridge":6420,"Ġhoriz":6421,"Ġsubs":6422,"Ġbeliefs":6423,"isters":6424,"Ġflag":6425,"Ġath":6426,"Ġorganisms":6427,"Ġvariable":6428,"Ġpsychological":6429,"roduction":6430,"hav":6431,"irt":6432,"Int":6433,"Ġfrequent":6434,"top":6435,"Ġtwenty":6436,"ĠOh":6437,"ĠCancer":6438,"Ġrising":6439,"Ġdistur":6440,"ĠTime":6441,"sts":6442,"ults":6443,"ĠColor":6444,"ĠAS":6445,"Ġfunctional":6446,"Ġwilling":6447,"American":6448,"Ġinstruments":6449,"rovers":6450,"ĠHome":6451,"Ġcapture":6452,"Ġobservations":6453,"Ġrhy":6454,"Ġshop":6455,"ĠIreland":6456,"uh":6457,"Ġeastern":6458,"ĠPub":6459,"ĠKeep":6460,"ĠCy":6461,"Ġgenerations":6462,"Ġdemonstrated":6463,"Ġinsurance":6464,"Ġturns":6465,"Ġment":6466,"ĠCa":6467,"Ġemployment":6468,"Ġknows":6469,"Ġterritory":6470,"Over":6471,"ĠStudy":6472,"Ġinteractions":6473,"Ġcontained":6474,"ictionary":6475,"Ġtall":6476,"DP":6477,"Ġresulted":6478,"ĠRob":6479,"omic":6480,"ĠCarolina":6481,"Ġexamine":6482,"ĠNorthern":6483,"Ġdebt":6484,"Ġsignificance":6485,"Ġprev":6486,"Ġlayers":6487,"Ġfu":6488,"ĠEth":6489,"ĠMag":6490,"ditional":6491,"Ġtrials":6492,"Ġcm":6493,"Ġcarb":6494,"ĠEnd":6495,"Ġ185":6496,"anta":6497,"UN":6498,"Ġsettings":6499,"Ġadministr":6500,"Ġobesity":6501,"Ã³":6502,"ĠValley":6503,"Ġdoi":6504,"ctor":6505,"Ġwhatever":6506,"Ġequivalent":6507,"Ġdelay":6508,"called":6509,"usiness":6510,"LA":6511,"utch":6512,"teen":6513,"Ġguarant":6514,"Ġgrew":6515,"Ġ36":6516,"itivity":6517,"Ġchick":6518,"ih":6519,"Ġpartner":6520,"Ġrow":6521,"Ġmice":6522,"Ġmeth":6523,"Ġrefuge":6524,"Ġcompetition":6525,"Ġborder":6526,"weight":6527,"Ġlegs":6528,"icon":6529,"Ġ1960":6530,"Ġstroke":6531,"Ġentry":6532,"Ġdelivery":6533,"Ġdrain":6534,"such":6535,"ĠFort":6536,"CD":6537,"Ġvote":6538,"Ġplayers":6539,"ione":6540,"espread":6541,"Ġsmoke":6542,"Ġreliable":6543,"Ġfunds":6544,"Ġdemonstrate":6545,"Ġpair":6546,"Ġresolution":6547,"Ġastr":6548,"Ġenab":6549,"Ġpolitics":6550,"Ġdiagnosed":6551,"Ġpowers":6552,"Ġsubstances":6553,"cons":6554,"ĠSpain":6555,"Ġhypothes":6556,"hesis":6557,"ĠGal":6558,"Ġcomments":6559,"pet":6560,"ĠAdditionally":6561,"Ġrelation":6562,"ĠRoyal":6563,"ĠMill":6564,"ĠSciences":6565,"comm":6566,"ĠAcademy":6567,"Ġfever":6568,"uter":6569,"Ġnearby":6570,"ola":6571,"Ġzero":6572,"ĠPenn":6573,"ĠAgricult":6574,"onia":6575,"ĠScot":6576,"ether":6577,"Ġshut":6578,"Ġdepartment":6579,"Ġestimates":6580,"Ġjoined":6581,"eless":6582,"ĠRichard":6583,"cycl":6584,"Ġmos":6585,"Ġchrom":6586,"Ġsmooth":6587,"Ġrecept":6588,"Ġobjective":6589,"asters":6590,"while":6591,"Ġflo":6592,"hered":6593,"ĠDiff":6594,"Ġteen":6595,"Ġaccessible":6596,"oding":6597,"Ġalign":6598,"Ġru":6599,"Ġindependence":6600,"Ġswim":6601,"ĠWood":6602,"ĠEmpire":6603,"Ġexplo":6604,"Ġbot":6605,"tic":6606,"Ġoffering":6607,"Ġpresentation":6608,"how":6609,"Ġprove":6610,"plant":6611,"ĠClimate":6612,"05":6613,"Ġexercises":6614,"ĠGard":6615,"ĠTimes":6616,"79":6617,"Ġpoison":6618,"dule":6619,"Ġsupposed":6620,"42":6621,"Ġships":6622,"Ġcrime":6623,"struction":6624,"ourage":6625,"Ġmoisture":6626,"idity":6627,"Ġissued":6628,"inally":6629,"ĠNative":6630,"Ġmaps":6631,"Ġspending":6632,"ĠEss":6633,"bra":6634,"Ġoutbre":6635,"Ġmembr":6636,"Ġoperate":6637,"ĠCap":6638,"isk":6639,"anches":6640,"Ġhur":6641,"Ġsole":6642,"xts":6643,"ĠChicago":6644,"BS":6645,"Ġmand":6646,"Of":6647,"ĠBoard":6648,"Ġsurve":6649,"Ġpapers":6650,"Ġ1997":6651,"ĠWorks":6652,"First":6653,"Ġshot":6654,"IG":6655,"Ġongoing":6656,"earing":6657,"Ġusage":6658,"Ġlect":6659,"Ġeveryday":6660,"Ġpra":6661,"making":6662,"Ġbond":6663,"Ġspaces":6664,"Ġadequate":6665,"aked":6666,"iah":6667,"Ġgap":6668,"Ġmeal":6669,"Ġpainting":6670,"Lear":6671,"Ġreduces":6672,"Ġmarkets":6673,"ployment":6674,"olving":6675,"esis":6676,"Ġfashion":6677,"Ġemployed":6678,"aine":6679,"etime":6680,"Ġseeking":6681,"occ":6682,"erior":6683,"aph":6684,"Ġscan":6685,"ĠPy":6686,"avery":6687,"ĠâĢ¢":6688,"Ġholds":6689,"66":6690,"Ġbreath":6691,"Ġmode":6692,"ediatric":6693,"Ġparticipation":6694,"Ġreven":6695,"ĠScott":6696,"Ġhem":6697,"Ġputting":6698,"Ġconsumer":6699,"Ġdefine":6700,"everal":6701,"Ġlaunched":6702,"umps":6703,"Ġnest":6704,"Ġminerals":6705,"Ġpositions":6706,"Ġ75":6707,"Ġbiod":6708,"Your":6709,"ighter":6710,"01":6711,"Ġtissues":6712,"IA":6713,"een":6714,"ureau":6715,"Ġwasn":6716,"43":6717,"ugh":6718,"itely":6719,"Ġarrange":6720,"Ġbridge":6721,"ĠPan":6722,"Rec":6723,"Ġstimul":6724,"Ġvs":6725,"Ġmatch":6726,"Ġmatters":6727,"88":6728,"Ġhole":6729,"Ġbutter":6730,"Ġelectro":6731,"Ġinvolving":6732,"Ġoblig":6733,"Ġexpansion":6734,"scale":6735,"ishment":6736,"urrent":6737,"Ġpassage":6738,"Ġundert":6739,"Ġlegislation":6740,"Ġassociation":6741,"Ġscript":6742,"osion":6743,"ĠMichael":6744,"ĠBrazil":6745,"oven":6746,"hent":6747,"Ġwidespread":6748,"Ġscene":6749,"Ġdanger":6750,"Ġdefe":6751,"Ġguidance":6752,"Ġspok":6753,"Ġvoltage":6754,"ĠWhere":6755,"Ġrelief":6756,"itter":6757,"eenth":6758,"Ġcryst":6759,"ala":6760,"Ġrepair":6761,"41":6762,"Ġfold":6763,"Ġconven":6764,"Ġsheet":6765,"Ġsacr":6766,"rooms":6767,"ĠHoly":6768,"Ġbrings":6769,"Ġfulf":6770,"Ġcup":6771,"Ġcategories":6772,"Ġsections":6773,"ittle":6774,"Ġcontrols":6775,"ĠFree":6776,"ĠStr":6777,"%)":6778,"Ġrecommendations":6779,"Ġforget":6780,"ĠEarly":6781,"Ġroute":6782,"amins":6783,"Ġrig":6784,"gical":6785,"Ġmining":6786,"Ġblocks":6787,"Ġpreventing":6788,"IR":6789,"ĠHave":6790,"fit":6791,"Ġinstalled":6792,"Ġtight":6793,"Ġrice":6794,"Ġcollaboration":6795,"ĠDig":6796,"Ġcommitted":6797,"idential":6798,"rite":6799,"ading":6800,"Ġcovers":6801,"Ġbeauty":6802,"Ġexplanation":6803,"Ġfer":6804,"Ġtrip":6805,"Ġmood":6806,"Ġframe":6807,"ĠGeorg":6808,"mes":6809,"Ġaward":6810,"Ġadvantages":6811,"Ġshif":6812,"Ġdamaged":6813,"ĠEU":6814,"Ġaccuracy":6815,"ĠSing":6816,"she":6817,"Ġcav":6818,"Ġdrawn":6819,"Ġsurfaces":6820,"car":6821,"Qu":6822,"opic":6823,"Ġdepart":6824,"Ġkidney":6825,"ented":6826,"alls":6827,"Ġmm":6828,"CA":6829,"ushed":6830,"Ġorgans":6831,"Ġartists":6832,"iability":6833,"Ġforth":6834,"________":6835,"Ġrenewable":6836,"Ġmeasurement":6837,"Ġburning":6838,"Ġmeters":6839,"Ġreceiving":6840,"Ġbanks":6841,"ĠWik":6842,"Ġholding":6843,"Ġconstantly":6844,"Ġloved":6845,"Ġkne":6846,"ĠTake":6847,"Ġruns":6848,"Ġinsulin":6849,"Once":6850,"Ã¶":6851,"ocation":6852,"Ġapproved":6853,"gov":6854,"ĠEastern":6855,"Ġholid":6856,"Ġstring":6857,"utrition":6858,"Ġworry":6859,"Ġindicated":6860,"iration":6861,"Ġmanip":6862,"Ġhistoric":6863,"rial":6864,"Ġ150":6865,"Ġdetection":6866,"Ġestimate":6867,"ĠBrown":6868,"Ġfurn":6869,"Ġpharm":6870,"Ġ1996":6871,"quit":6872,"gers":6873,"Â·":6874,"Ġinformed":6875,"ĠAccess":6876,"azine":6877,"Ġcounty":6878,"Ġagreed":6879,"orph":6880,"Ġvac":6881,"Ġnone":6882,"Ġviruses":6883,"Ġtexts":6884,"Ġrely":6885,"Ġrivers":6886,"ĠProp":6887,"Ġintense":6888,"Ġmeasurements":6889,"ĠIII":6890,"ĠGuide":6891,"otton":6892,"Ġconsidering":6893,"Ġended":6894,"Ġblow":6895,"Ġtons":6896,"Ġintegrated":6897,"icit":6898,"Ġmechanical":6899,"Ġneur":6900,"ulty":6901,"nect":6902,"Ġingredients":6903,"Ġdesigns":6904,"Ġintellectual":6905,"Ġroles":6906,"Ġevaluate":6907,"Ġille":6908,"Ġvictims":6909,"Ġcenters":6910,"Ġgram":6911,"Ġske":6912,"ĠParty":6913,"Ġdys":6914,"Ġearn":6915,"rency":6916,"Ġstreet":6917,"thritis":6918,"itamin":6919,"Ġbath":6920,"Ġdivision":6921,"Ġcolumn":6922,"Ġhun":6923,"ĠBab":6924,"oples":6925,"etics":6926,"Ġphysics":6927,"health":6928,"ĠVictor":6929,"herent":6930,"ML":6931,"Ġcards":6932,"Ġstrongly":6933,"Ġcentre":6934,"SS":6935,"sis":6936,"Ġtub":6937,"ĠCre":6938,"ĠAge":6939,"Ġ32":6940,"ĠIndians":6941,"ĠItalian":6942,"Even":6943,"Ġnob":6944,"Ġconstructed":6945,"Ġcleaning":6946,"Ġvariables":6947,"Ġpreparation":6948,"Ġneither":6949,"ĠServices":6950,"Ġblind":6951,"Ġmissing":6952,"ani":6953,"Ġdestruction":6954,"Ġcriteria":6955,"ĠLanguage":6956,"Don":6957,"Ġturning":6958,"ĠMer":6959,"Ġrank":6960,"Ġtransp":6961,"Ġexamination":6962,"Me":6963,"opes":6964,"Ġtrouble":6965,"71":6966,"Ġwait":6967,"Ġfacility":6968,"Ġhonor":6969,"Ġcontrovers":6970,"Ġrespectively":6971,"Ġplenty":6972,"Ġasking":6973,"IM":6974,"Ġcompare":6975,"abulary":6976,"Ġvolcan":6977,"Ġdesired":6978,"ĠAcc":6979,"Ġsomewhat":6980,"ĠIrish":6981,"Ġannounced":6982,"Ġbabies":6983,"aming":6984,"Ġrespiratory":6985,"%.":6986,"reek":6987,"Ġentered":6988,"Ġring":6989,"ĠMoreover":6990,"ĠPlant":6991,"Ġdeclared":6992,"Ġmortality":6993,"Ġaband":6994,"estion":6995,"Ġfemales":6996,"85":6997,"airy":6998,"arsh":6999,"Ġstre":7000,"ĠForest":7001,"ĠAtlantic":7002,"Ġfro":7003,"Ġincred":7004,"Ġorient":7005,"Ġnervous":7006,"Le":7007,"ĠEqu":7008,"Ġenemy":7009,"ibl":7010,"Ġboy":7011,"ĠCreat":7012,"Ġdistributed":7013,"Ġcoastal":7014,"Ġinfluenced":7015,"Ġoutcome":7016,"Ġimplications":7017,"elesc":7018,"Ġcomposed":7019,"ĠDar":7020,"Ġfacing":7021,"Ġearthqu":7022,"Ġtract":7023,"Ġnegot":7024,"ventions":7025,"Ġglucose":7026,"Ġstrict":7027,"Ġexcessive":7028,"Ġuncertain":7029,"Ġeffectiveness":7030,"Ġmales":7031,"kins":7032,"Ġproportion":7033,"Ġcareful":7034,"Ġconversation":7035,"pan":7036,"ĠKingdom":7037,"ĠEffect":7038,"Ġ1995":7039,"Ġforg":7040,"ady":7041,"Ġelection":7042,"Ġcalories":7043,"Ġfavorite":7044,"ĠAdv":7045,"ĠBig":7046,"Ġbreeding":7047,"acco":7048,"Ġengaged":7049,"Ġfarming":7050,"Ġensuring":7051,"operation":7052,"HD":7053,"riend":7054,"Ġ65":7055,"Ġrealize":7056,"Ġpublication":7057,"yal":7058,"Ġphoto":7059,"Ġirrit":7060,"gs":7061,"forcement":7062,"sue":7063,"Ġtube":7064,"Ġadvert":7065,"Ġboys":7066,"Ġparas":7067,"hyd":7068,"pes":7069,"Ġdomain":7070,"Ġrocks":7071,"Ġcategory":7072,"Ġsought":7073,"OC":7074,"Ġcomplicated":7075,"igan":7076,"Ġarchae":7077,"Ġpush":7078,"rey":7079,"rane":7080,"raining":7081,"esides":7082,"Ġhusband":7083,"Ġpregnant":7084,"net":7085,"Ġdollars":7086,"ortion":7087,"igate":7088,"Ġmetabol":7089,"ĠSil":7090,"yr":7091,"Ġaims":7092,"Ġgradually":7093,"Ġteams":7094,"ĠBefore":7095,"isdom":7096,"roat":7097,"Ġtheore":7098,"IDS":7099,"rene":7100,"Ġclothing":7101,"Ġcomfortable":7102,"Ġwound":7103,"Ġwithd":7104,"Because":7105,"RA":7106,"Ġangle":7107,"ommod":7108,"Ġpounds":7109,"oom":7110,"Ġintest":7111,"ĠYear":7112,"Ġcontemporary":7113,"Ġped":7114,"Ġthanks":7115,"Ġtheories":7116,"Ġacute":7117,"Ġmerely":7118,"Ġcrim":7119,"Ġdose":7120,"Ġshapes":7121,"Ġheating":7122,"OL":7123,"ivered":7124,"ĠZeal":7125,"Ġshock":7126,"Ġmaintained":7127,"Ġtransact":7128,"rowing":7129,"Ġdeeper":7130,"Ġmessages":7131,"Ġhorses":7132,"ĠMartin":7133,"aded":7134,"apse":7135,"Ġanalys":7136,"ĠResources":7137,"oir":7138,"Ġartist":7139,"Ġabnormal":7140,"Ġparallel":7141,"Ġseemed":7142,"Ġplus":7143,"Ġnose":7144,"ĠFamily":7145,"ĠFurthermore":7146,"itals":7147,"orders":7148,"Ġimplemented":7149,"Ġowner":7150,"Ġremoval":7151,"example":7152,"iral":7153,"Ġbeings":7154,"Ġdependent":7155,"ĠAgency":7156,"ĠFace":7157,"Ġgut":7158,"Ġsatellite":7159,"Ġinnovation":7160,"Ġphenomenon":7161,"Ġagents":7162,"ixture":7163,"Ġarts":7164,"ĠAP":7165,"Ġmold":7166,"ĠTV":7167,"ĠAsian":7168,"ĠHy":7169,"rary":7170,"heric":7171,"Ġproven":7172,"Ġserving":7173,"Ġsubsequent":7174,"ovascular":7175,"Ġpand":7176,"Ġdischar":7177,"aning":7178,"ĠSecurity":7179,"Ġscore":7180,"ĠSometimes":7181,"aska":7182,"Ġdiscrimination":7183,"osh":7184,"Ġcommission":7185,"Ġbringing":7186,"Ġcompris":7187,"oln":7188,"Ġfourth":7189,"Ġserves":7190,"iological":7191,"Ġvarieties":7192,"Ġoverw":7193,"Ġproof":7194,"agram":7195,"Ġswitch":7196,"aired":7197,"Ġvisitors":7198,"amination":7199,"ĠThough":7200,"Ġescape":7201,"Ġsession":7202,"Ġweapons":7203,"Every":7204,"Ġofficers":7205,"Ġconfirmed":7206,"greg":7207,"Ġcombat":7208,"ĠSat":7209,"ĠChange":7210,"Ġtheme":7211,"Ġcaptured":7212,"Ġarrest":7213,"ĠOpen":7214,"ĠSpecial":7215,"Ġrarely":7216,"ĠHill":7217,"eren":7218,"Ġlearners":7219,"eli":7220,"Ġpanel":7221,"Ġfocuses":7222,"Ġinn":7223,"Ġhealing":7224,"Ġpeak":7225,"Ġmoves":7226,"ĠPolic":7227,"UT":7228,"Ġtemple":7229,"ohyd":7230,"ĠCheck":7231,"cyclop":7232,"ĠZealand":7233,"Ġchlor":7234,"Ġjump":7235,"Ġattempts":7236,"Ġreward":7237,"ĠNaz":7238,"ĠSup":7239,"heimer":7240,"ollowing":7241,"ĠRom":7242,"Ġstronger":7243,"ano":7244,"73":7245,"Ġclar":7246,"htt":7247,"Ġdealing":7248,"ĠOxford":7249,"ĠWord":7250,"Ġprohib":7251,"acher":7252,"Ġsilver":7253,"Ġencouraged":7254,"Ġtrends":7255,"Ġthreats":7256,"Ġcharacterized":7257,"Ġtreating":7258,"Ġpresents":7259,"asty":7260,"ruption":7261,"Ġknowing":7262,"ĠCommunity":7263,"Ġfung":7264,"Ġabsence":7265,"Ġfilter":7266,"ogether":7267,"Ġdisaster":7268,"Ġcircle":7269,"Ġbreed":7270,"Ġopposed":7271,"Ġov":7272,"Ġmolecular":7273,"essions":7274,"Ġseconds":7275,"Ġpassing":7276,"Ġid":7277,"eness":7278,"Today":7279,"Ġstatistics":7280,"Ġcooking":7281,"Ġdifficulties":7282,"Ġmicrob":7283,"Or":7284,"outs":7285,"Ġfairly":7286,"Ġtowns":7287,"ĠViet":7288,"Ġcarrying":7289,"CH":7290,"Ġtut":7291,"Ġevil":7292,"Su":7293,"istical":7294,"ĠPop":7295,"iana":7296,"otes":7297,"Ġflower":7298,"Ġconsiderable":7299,"akistan":7300,"Ġfishing":7301,"Ġencoun":7302,"Ġuniversal":7303,"Ġscreening":7304,"uality":7305,"Ġislands":7306,"Ġgained":7307,"ĠChristmas":7308,"ĠLib":7309,"Ġformula":7310,"ĠDistrict":7311,"ĠSym":7312,"ailed":7313,"Ġlaunch":7314,"Ġturb":7315,"68":7316,"Ġsigned":7317,"Ġphotos":7318,"Ġessentially":7319,"Ġradical":7320,"ĠAND":7321,"effect":7322,"Ġbranches":7323,"Ġdefense":7324,"Ġempt":7325,"ĠResp":7326,"Ġbiology":7327,"ĠPet":7328,"ilation":7329,"rous":7330,"Ġcorrel":7331,"72":7332,"Am":7333,"Ġitem":7334,"Ġedition":7335,"Ġcopper":7336,"Ġremed":7337,"Ġouter":7338,"oga":7339,"Ġasthma":7340,"Ġsales":7341,"Ġinher":7342,"Ġnitrogen":7343,"Ġspectrum":7344,"ĠÐ":7345,"Ġequally":7346,"theless":7347,"ĠDespite":7348,"ĠList":7349,"ĠIslam":7350,"medi":7351,"Ġinfect":7352,"Ġtargets":7353,"Ġroads":7354,"Ġcrew":7355,"ĠAdministration":7356,"illa":7357,"Ġhormone":7358,"Ġracial":7359,"Ġchest":7360,"amine":7361,"Ġdelivered":7362,"bles":7363,"olesc":7364,"ĠPo":7365,"Ġprovider":7366,"ĠMel":7367,"Ġinsert":7368,"Ġsharp":7369,"Ġfalls":7370,"Ġguard":7371,"Ġerrors":7372,"ĠYoung":7373,"ostic":7374,"Ġclaimed":7375,"Ġinterpretation":7376,"Ġpy":7377,"Ġunusual":7378,"emia":7379,"rox":7380,"ĠAmong":7381,"Ġdemands":7382,"Ġplanned":7383,"Ġprincipal":7384,"Ġinfant":7385,"ĠWho":7386,"Ġmineral":7387,"Ġimagine":7388,"pling":7389,"Ġconsideration":7390,"Ġstability":7391,"coming":7392,"otal":7393,"oston":7394,"Ġgro":7395,"74":7396,"asses":7397,"Ġsubstantial":7398,"Ġinterpre":7399,"peror":7400,"Ġnewly":7401,"Ġslavery":7402,"ĠDoes":7403,"'m":7404,"Ġpit":7405,"sm":7406,"Ġlights":7407,"ĠNetwork":7408,"produ":7409,"Ġtrigger":7410,"Ġeliminate":7411,"va":7412,"amics":7413,"ĠIndust":7414,"Ġjudge":7415,"Ġphosph":7416,"Ġremind":7417,"Ġhazard":7418,"alm":7419,"Ġproved":7420,"ioxid":7421,"Comm":7422,"Ġprominent":7423,"Ġdisrupt":7424,"ĠGrand":7425,"Ġfed":7426,"ipedia":7427,"Ġcham":7428,"Ġinvestigation":7429,"vard":7430,"Ġsport":7431,"incoln":7432,"haust":7433,"Comp":7434,"Ġfaced":7435,"Ġhappening":7436,"ĠRock":7437,"Ġlake":7438,"chen":7439,"ooking":7440,"lishing":7441,"Ġpestic":7442,"ĠSecret":7443,"Ġmathematics":7444,"Ġunw":7445,"ĠNon":7446,"Ġrab":7447,"CE":7448,"ĠHeb":7449,"bar":7450,"Ġstructural":7451,"Ġflour":7452,"Ġlie":7453,"Ġcomplications":7454,"Ġconsume":7455,"Ġdecor":7456,"Ġstead":7457,"ĠBill":7458,"Ġcriminal":7459,"Ġwine":7460,"oric":7461,"ustain":7462,"Ġmicrosc":7463,"Ġwriters":7464,"ontal":7465,"ĠMD":7466,"Ġexclus":7467,"Ġproceed":7468,"ounce":7469,"Ġcompound":7470,"Ġroughly":7471,"Ġmanifest":7472,"Ġminute":7473,"Ġ400":7474,"Ġdecreased":7475,"Ġobserve":7476,"Ġschedule":7477,"ersonal":7478,"Ġmodified":7479,"Ġexamined":7480,"Ġholes":7481,"Ġtropical":7482,"ĠMS":7483,"Ġhoney":7484,"adder":7485,"Ġconcerning":7486,"Ġabilities":7487,"ptions":7488,"ĠCentre":7489,"Ġlaid":7490,"ĠDirector":7491,"tles":7492,"Ġtraditions":7493,"Ġcash":7494,"Ġspin":7495,"Ġ1950":7496,"Ġanywhere":7497,"Ġusual":7498,"Ġsatisf":7499,"Ġinitially":7500,"Ġliteracy":7501,"Ġadds":7502,"Ġgalax":7503,"icate":7504,"riz":7505,"including":7506,"Ġscientist":7507,"Ġassume":7508,"igue":7509,"ĠSwed":7510,"ĠDen":7511,"Ġfinished":7512,"Ġintent":7513,"requ":7514,"icing":7515,"rison":7516,"AA":7517,"ĠFinally":7518,"inf":7519,"Ġaccommod":7520,"Ġcompens":7521,"Ġdynamic":7522,"Ġdates":7523,"Ġwarning":7524,"gence":7525,"ĠVer":7526,"just":7527,"Ġcorrectly":7528,"atively":7529,"ĠMoon":7530,"Ġmarks":7531,"gien":7532,"agraph":7533,"ultane":7534,"ĠSafety":7535,"ĠEp":7536,"Ġgrain":7537,"Ġprinting":7538,"Ġbiom":7539,"iary":7540,"Ġphysician":7541,"Ġevolved":7542,"Ġvideos":7543,"Ġdetected":7544,"door":7545,"Ġprinted":7546,"cking":7547,"Ġhosp":7548,"Ġconfig":7549,"ĠSign":7550,"Ġidentifying":7551,"Ġexceed":7552,"Ġfest":7553,"Ġbranch":7554,"Ġcab":7555,"Ġsus":7556,"Ġ1994":7557,"reated":7558,"Ġsunlight":7559,"Ġcorner":7560,"ograp":7561,"Ġcyber":7562,"print":7563,"Ġbigger":7564,"ĠFund":7565,"Ġdefend":7566,"Ġplane":7567,"df":7568,"ĠMen":7569,"vin":7570,"ĠPrinc":7571,"Ġassigned":7572,"Ġsenior":7573,"Ġexception":7574,"Ġovercome":7575,"asant":7576,"Ġcommitment":7577,"Ġintensity":7578,"Ġmaybe":7579,"fts":7580,"Ġexperimental":7581,"Ġvariation":7582,"Ġstrengthen":7583,"rance":7584,"Ġdiameter":7585,"Ġcoron":7586,"Ed":7587,"Ġrecover":7588,"Ġneighborhood":7589,"Ġamazing":7590,"ĠWindows":7591,"elfare":7592,"arents":7593,"unicip":7594,"ima":7595,"Ġdriven":7596,"Ġelected":7597,"ĠDou":7598,"abeth":7599,"ĠAngel":7600,"ĠLow":7601,"MP":7602,"Ġexperiencing":7603,"Ġengineers":7604,"Ġheavily":7605,"Ġgrid":7606,"Ġsoul":7607,"atial":7608,"Ġeditor":7609,"Ġinnovative":7610,"89":7611,"Ġalter":7612,"Ġprocessed":7613,"Ġadm":7614,"oids":7615,"Ġcaught":7616,"ĠOrganization":7617,"Ġvitamins":7618,"ĠLar":7619,"App":7620,"Ġrose":7621,"ĠCast":7622,"Ġidentification":7623,"Ġye":7624,"otype":7625,"Ġbees":7626,"Ġsubt":7627,"Ġworship":7628,"eut":7629,"Ġlistening":7630,"Ġearliest":7631,"ĠMethod":7632,"Ġtelevision":7633,"itual":7634,"Ġstations":7635,"Ġstores":7636,"ricts":7637,"ĠJac":7638,"ested":7639,"Ġproviders":7640,"ĠColumbia":7641,"Ġclient":7642,"69":7643,"Ġmeasuring":7644,"rat":7645,"icted":7646,"Ġsuffered":7647,"Ġscar":7648,"Med":7649,"Ã¢":7650,"Ġisolated":7651,"ĠFigure":7652,"Ġbacterial":7653,"Ġregulation":7654,"Ġprotecting":7655,"Ġmeals":7656,"imm":7657,"Ġdietary":7658,"sell":7659,"Ġstatements":7660,"Ġstake":7661,"ali":7662,"Ġwindows":7663,"rays":7664,"ĠEst":7665,"ogs":7666,"oured":7667,"Ġobjectives":7668,"Ġaccompan":7669,"Per":7670,"Ġsuscept":7671,"Ġauthent":7672,"itarian":7673,"ette":7674,"Ġbomb":7675,"ocial":7676,"Ġstrain":7677,"Ġproductivity":7678,"ĠCoast":7679,"Ġmg":7680,"Ġindigenous":7681,"Ġceremon":7682,"class":7683,"ĠSimilar":7684,"Ġordered":7685,"ucky":7686,"People":7687,"iture":7688,"ĠJohnson":7689,"Ġstuff":7690,"ishop":7691,"Ġenables":7692,"iat":7693,"Ġplot":7694,"Ġplayer":7695,"Ġkilomet":7696,"Ġsplit":7697,"zheimer":7698,"Ġconj":7699,"Ġdisabilities":7700,"holders":7701,"Ġobservation":7702,"Ġcooling":7703,"Ġton":7704,"isted":7705,"Ġtranslation":7706,"semb":7707,"ĠPakistan":7708,"Ġpros":7709,"ĠMult":7710,"soft":7711,"Ġarray":7712,"ĠEngineering":7713,"icy":7714,"Ġcattle":7715,"Ġreveal":7716,"Ġslaves":7717,"ogenic":7718,"Col":7719,"Under":7720,"64":7721,"Ġcoverage":7722,"Ġdriver":7723,"Ġextend":7724,"Ġgranted":7725,"night":7726,"Ġpoem":7727,"Ġinspired":7728,"Ġepis":7729,"orted":7730,"ĠEr":7731,"Ġreaching":7732,"ĠIran":7733,"ĠPlease":7734,"vania":7735,"She":7736,"Ġsitting":7737,"Ġfunctioning":7738,"rav":7739,"Ġfinds":7740,"Ġconcluded":7741,"Ġworkshe":7742,"Ġflows":7743,"Ġcustomer":7744,"Ġprotective":7745,"ĠChristians":7746,"Ġmanaging":7747,"Ġathlet":7748,"Ġorbit":7749,"Ġgrows":7750,"Ġterror":7751,"Ġmusical":7752,"Ġdrought":7753,"ĠNever":7754,"Ġadverse":7755,"Ġperception":7756,"Ġenorm":7757,"EE":7758,"PR":7759,"Ġheads":7760,"Ġperm":7761,"Ġpanels":7762,"uten":7763,"Ġengaging":7764,"ĠSupreme":7765,"Ġantibiotics":7766,"Ġcoc":7767,"dr":7768,"ieval":7769,"Ġ48":7770,"ĠWall":7771,"mod":7772,"onym":7773,"ĠFour":7774,"Ġconqu":7775,"isco":7776,"ĠSuper":7777,"Ġoccurring":7778,"Ġwheel":7779,"brid":7780,"Ġcontribution":7781,"Ġrepresentation":7782,"Ġchannel":7783,"Ġaged":7784,"Ġplanting":7785,"Ġpromoting":7786,"Ġautomatically":7787,"Ġautism":7788,"Ġbrows":7789,"ĠDev":7790,"lines":7791,"Ġemphasis":7792,"Ġpin":7793,"Ġuniform":7794,"enger":7795,"ĠThree":7796,"ĠSir":7797,"syl":7798,"ĠPot":7799,"ĠSund":7800,"Ġregardless":7801,"Ġsensors":7802,"Ġvocabulary":7803,"ĠTre":7804,"Ġrelie":7805,"ĠVen":7806,"ildren":7807,"ĠSar":7808,"ura":7809,"Ġ38":7810,"allow":7811,"Ġhence":7812,"Ġcort":7813,"ude":7814,"Ġsuperior":7815,"Ear":7816,"ĠColl":7817,"etary":7818,"Ġduty":7819,"Ġconce":7820,"Ġcounsel":7821,"Ġimaging":7822,"Ġgiant":7823,"Ġagent":7824,"Ġembra":7825,"ercury":7826,"angered":7827,"plete":7828,"ĠOhio":7829,"Ġhardware":7830,"Ġoverwhel":7831,"otherapy":7832,"Ġtaxes":7833,"ĠBoston":7834,"ourse":7835,"eping":7836,"Ġassets":7837,"Ġpeoples":7838,"Ġinterventions":7839,"ao":7840,"Ġadvent":7841,"Ġmountains":7842,"Ġweakness":7843,"Ġslave":7844,"ĠJul":7845,"Ġnutrient":7846,"Ġavailability":7847,"achers":7848,"Ġcontributed":7849,"def":7850,"ĠLincoln":7851,"Ġinhabit":7852,"ĠStart":7853,"ĠLead":7854,"Ġwrites":7855,"ENT":7856,"Ġaffecting":7857,"Ġviewed":7858,"Ġmosquit":7859,"Ġhidden":7860,"mm":7861,"Ġconference":7862,"Ġasc":7863,"Ġmoderate":7864,"acent":7865,"ĠJeff":7866,"Ġfatty":7867,"Ġsensitivity":7868,"Ġworst":7869,"Ġles":7870,"Ġmir":7871,"Ġdirected":7872,"ĠMinister":7873,"Ġalph":7874,"ĠLo":7875,"Ġconcentrations":7876,"ĠTim":7877,"Ġdecay":7878,"ĠCho":7879,"Ġacquired":7880,"ĠFather":7881,"izabeth":7882,"Ġaddressed":7883,"Pre":7884,"Ġprofit":7885,"ĠLearn":7886,"ĠPrevention":7887,"Ġwheat":7888,"Ġexhaust":7889,"yer":7890,"century":7891,"Ġcovering":7892,"Ġforming":7893,"Ġparameters":7894,"Ġmixture":7895,"Ġgases":7896,"ansas":7897,"Ġrac":7898,"Ġsupplements":7899,"hus":7900,"Ġinsight":7901,"Ġargue":7902,"Ġsurge":7903,"Ġ33":7904,"Ġresil":7905,"ĠHand":7906,"ĠProtection":7907,"Ġlaser":7908,"Ġvel":7909,"MA":7910,"Ġeducators":7911,"amples":7912,"Ġampl":7913,"Ġacres":7914,"Ġpandemic":7915,"quir":7916,"Ġanalyze":7917,"ailable":7918,"Ġbag":7919,"athered":7920,"lu":7921,"oli":7922,"Ġinteractive":7923,"Ġheritage":7924,"08":7925,"Ġmanufacturers":7926,"Ġcomprom":7927,"aws":7928,"Ġsizes":7929,"Ġquantity":7930,"Ġsup":7931,"rolled":7932,"About":7933,"Step":7934,"Ġtechnological":7935,"ruit":7936,"ĠUr":7937,"09":7938,"Ġoldest":7939,"Ġinequ":7940,"ographical":7941,"Ġthermal":7942,"Ġunion":7943,"Ġlymph":7944,"ĠLiter":7945,"asts":7946,"ĠScotland":7947,"rection":7948,"Ġbatteries":7949,"Ġresid":7950,"Ġlip":7951,"forest":7952,"Ġchances":7953,"?\"":7954,"ĠKar":7955,"Ġconserv":7956,"CP":7957,"Ġthereby":7958,"Ġphrase":7959,"Ġsmell":7960,"ĠHebrew":7961,"ptom":7962,"HA":7963,"ĠType":7964,"esh":7965,"ba":7966,"ĠTable":7967,"ĠJo":7968,"ĠLight":7969,"Ġ)":7970,"real":7971,"ĠPen":7972,"Ġcapabilities":7973,"ĠOper":7974,"Ġreporting":7975,"Ġprosp":7976,"aren":7977,"Ġexciting":7978,"Ġ1992":7979,"Ġtables":7980,"ĠAlzheimer":7981,"Ġfarms":7982,"ĠAuthor":7983,"Ġfinger":7984,"ĠHospital":7985,"Ġcalling":7986,"Ġsimultane":7987,"ĠCross":7988,"ĠMah":7989,"03":7990,"Ġfalling":7991,"icular":7992,"Ġpla":7993,"ĠBul":7994,"Ġquiet":7995,"ĠIV":7996,"ĠSet":7997,"Ġcotton":7998,"ĠStar":7999,"Ġantioxid":8000,"Ġrhyth":8001,"antly":8002,"sylvania":8003,"ema":8004,"uting":8005,"ĠSand":8006,"Ġcompost":8007,"ĠWithout":8008,"ĠUt":8009,"Ġgirl":8010,"mers":8011,"Ġinterface":8012,"azon":8013,"hea":8014,"Ġbless":8015,"quar":8016,"Ġboundaries":8017,"ĠCambridge":8018,"à¥":8019,"NS":8020,"Ġethical":8021,"ĠFind":8022,"Ġnice":8023,"ĠKorea":8024,"ĠFire":8025,"Ġprogramme":8026,"HS":8027,"ĠArticle":8028,"Ġelder":8029,"Ġpreserve":8030,"ĠForce":8031,"ĠCurrent":8032,"ĠâĨ":8033,"Ġrational":8034,"Ġritual":8035,"Ġregarded":8036,"Ġdesert":8037,"Ġrobot":8038,"Part":8039,"59":8040,"Ġmigration":8041,"Ġnarrative":8042,"ĠMath":8043,"ĠFacebook":8044,"Ġaimed":8045,"Ġquarter":8046,"apor":8047,"Ġtick":8048,"BT":8049,"Ġtumor":8050,"ĠGr":8051,"uro":8052,"html":8053,"Ġ1993":8054,"Ġcomputing":8055,"Ġpersonality":8056,"Ġswit":8057,"Ġsettlement":8058,"ĠCell":8059,"Ġpursu":8060,"Ġseat":8061,"ĠPolicy":8062,"Ġmathematical":8063,"ĠConservation":8064,"Ġrect":8065,"Ġpreced":8066,"Ġexploration":8067,"Ġstones":8068,"Ġvan":8069,"Ġherb":8070,"Get":8071,"iments":8072,"CR":8073,"Ġcardiovascular":8074,"Ġvaccines":8075,"Ġseparated":8076,"Ġversions":8077,"ega":8078,"Ġcreatures":8079,"ĠGeorgia":8080,"Ġtrauma":8081,"itory":8082,"Ġcharacteristic":8083,"Note":8084,"alities":8085,"Ġvariations":8086,"ĠDivision":8087,"Ġconsumed":8088,"Ġhumanity":8089,"Ġlosses":8090,"Ġchemistry":8091,"rical":8092,"neys":8093,"har":8094,"ecess":8095,"angle":8096,"Ġvertical":8097,"Ġadvis":8098,"Also":8099,"ĠQueen":8100,"Ġintroduce":8101,"ĠImp":8102,"ĠBusiness":8103,"67":8104,"Ġupdated":8105,"Ġdeficiency":8106,"ĠLee":8107,"',":8108,"ĠSurvey":8109,"Ġinsights":8110,"Ġimprovements":8111,"Ġdance":8112,"Ġcure":8113,"Ġgast":8114,"ĠEdward":8115,"ĠLy":8116,"Ġsteam":8117,"Ġcolonial":8118,"irms":8119,"Ġillegal":8120,"ĠNote":8121,"Ġshoot":8122,"ĠReading":8123,"02":8124,"ĠCat":8125,"Ġscores":8126,"Ġfuels":8127,"una":8128,"Ġneutral":8129,"Car":8130,"Ġordinary":8131,"Co":8132,"ulpt":8133,"Ġcalculated":8134,"ĠIT":8135,"Ġhunting":8136,"Ġdress":8137,"erman":8138,"eting":8139,"fulness":8140,"anger":8141,"ĠMichigan":8142,"Ġpolar":8143,"ĠDom":8144,"Ġtong":8145,"Ġwisdom":8146,"Ġdisability":8147,"Ġlungs":8148,"Ġsustainability":8149,"ĠNov":8150,"Ġsubstit":8151,"Ġdemocracy":8152,"ĠAssess":8153,"Ġmyst":8154,"uset":8155,"ĠTO":8156,"archy":8157,"DS":8158,"ĠPur":8159,"Ġalive":8160,"Ġtap":8161,"Ġfocusing":8162,"Ġkilling":8163,"urches":8164,"ĠOnline":8165,"ĠTop":8166,"Ġcarbohyd":8167,"ĠRoad":8168,"Ġwebsites":8169,"ĠTry":8170,"Ġfats":8171,"Ġemerging":8172,"Ġtor":8173,"Ġburied":8174,"Ġharder":8175,"Ġvisited":8176,"],":8177,"Ġpropag":8178,"ĠAR":8179,"Ġgrains":8180,"opyright":8181,"ugg":8182,"Cons":8183,"Ġease":8184,"Ġflexible":8185,"Ġlens":8186,"Ġresearcher":8187,"pled":8188,"Ġcharged":8189,"58":8190,"Ġquantum":8191,"erty":8192,"Ġbelieves":8193,"Ġfra":8194,"Ġven":8195,"ricted":8196,"adow":8197,"Ġremarkable":8198,"Ġpermission":8199,"advant":8200,"Ġsched":8201,"Ġirrig":8202,"usalem":8203,"Ġinitiative":8204,"ĠTom":8205,"Ġappointed":8206,"ĠUnfortunately":8207,"Ġmarketing":8208,"eries":8209,"Ġtob":8210,"ĠHim":8211,"irth":8212,"ĠArctic":8213,"Ġurine":8214,"Ġspray":8215,"usetts":8216,"iop":8217,"utation":8218,"Ġexpanded":8219,"zer":8220,"ĠOl":8221,"achusetts":8222,"ĠpH":8223,"ĠHeart":8224,"Where":8225,"rize":8226,"ĠDO":8227,"ĠDutch":8228,"Ġexhibit":8229,"Ġsensor":8230,"Ġpointed":8231,"ĠAT":8232,"Ġran":8233,"Ġcas":8234,"berry":8235,"Ġabstract":8236,"ĠLess":8237,"Ġkeeps":8238,"ivest":8239,"Ġmetals":8240,"Ġdescript":8241,"aret":8242,"Before":8243,"Ġentertain":8244,"Ġecosystems":8245,"Ġintegration":8246,"lete":8247,"iva":8248,"Ġlock":8249,"Ġplanets":8250,"Ġphysically":8251,"Ã¤":8252,"Ġmine":8253,"ician":8254,"Ġsocieties":8255,"Ġdimens":8256,"Pr":8257,"amps":8258,"urning":8259,"Ġfellow":8260,"Ġexpectations":8261,"Ġattitude":8262,"Ġperforming":8263,"Ġlighting":8264,"ĠCorn":8265,"Ġcontainer":8266,"Ġorders":8267,"zym":8268,"ĠWay":8269,"Ġduration":8270,"Ġbalanced":8271,"Ġbutton":8272,"adel":8273,"Ġofficer":8274,"ptic":8275,"Ġstopped":8276,"Ġdrivers":8277,"asy":8278,"Ġachievement":8279,"Ġbiodiversity":8280,"Ġcord":8281,"Ġtransmit":8282,"Ġopposition":8283,"Ġecological":8284,"04":8285,"Ġrecycling":8286,"Ġargued":8287,"Ġmothers":8288,"Ġ1991":8289,"Ġplain":8290,"Last":8291,"ĠSpirit":8292,"Ġconsciousness":8293,"ĠModern":8294,"ĠHor":8295,"Ġbehavioral":8296,"ĠAM":8297,"Ġemotion":8298,"ĠPennsylvania":8299,"Ġattach":8300,"Ġstyles":8301,"Ġflying":8302,"Ġlogic":8303,"ĠColorado":8304,"Ġtribes":8305,"Ġdeeply":8306,"Ġtemporary":8307,"lights":8308,"Ġgeomet":8309,"Com":8310,"Ġadolesc":8311,"Ġroyal":8312,"Ġdetermining":8313,"Ġliterary":8314,"Ġsafely":8315,"Ġspr":8316,"omer":8317,"Ġelsewhere":8318,"Ġaudio":8319,"Ġtobacco":8320,"endment":8321,"Ġvegetation":8322,"Ġwaiting":8323,"Ġcancers":8324,"Ġgent":8325,"disc":8326,"Ġthreatened":8327,")|":8328,"John":8329,".).":8330,"ĠSS":8331,"Ġcommunications":8332,"Ġscope":8333,"kind":8334,"Ġremoving":8335,"ipe":8336,"uits":8337,"Ġ;":8338,"Ġreasonable":8339,"06":8340,"Ġom":8341,"ĠPalest":8342,"Ġfatigue":8343,"onal":8344,"%,":8345,"iger":8346,"Ġchap":8347,"Ġarguments":8348,"Ġfaces":8349,"Ġ55":8350,"gener":8351,"ĠHawai":8352,"Ġsentences":8353,"Ġlinear":8354,"Ġjur":8355,"ĠBattle":8356,"ipher":8357,"Ġwonderful":8358,"Ġowned":8359,"mann":8360,"Ġnom":8361,"friend":8362,"ĠRh":8363,"Ġcontributions":8364,"ĠFar":8365,"Ġpriority":8366,"istant":8367,"Ġequation":8368,"Ġexpertise":8369,"Ġdramatic":8370,"Ġincident":8371,"ĠPolit":8372,"Ġaddiction":8373,"Ġlists":8374,"ependent":8375,"sor":8376,"Ġshed":8377,"Ref":8378,"eor":8379,"Ġflash":8380,"Ġ95":8381,"Ġparagraph":8382,"ĠIslamic":8383,"Ġclock":8384,"Ġboat":8385,"mented":8386,"ĠIdent":8387,"Ġevening":8388,"Ġeru":8389,"ami":8390,"mia":8391,"usive":8392,"words":8393,"uum":8394,"ĠChapter":8395,"ivestock":8396,"through":8397,"Ġdim":8398,"ĠObs":8399,"Ġdirections":8400,"Ġhouseholds":8401,"Are":8402,"iti":8403,"rix":8404,"Ġhormones":8405,"Ġpreferred":8406,"Ġdominant":8407,"Ġdegrad":8408,"May":8409,"ĠAnalysis":8410,"Ġlowest":8411,"ĠElizabeth":8412,"Ġevident":8413,"iations":8414,"Ġintegr":8415,"bean":8416,"Ġfing":8417,"Ġexped":8418,"ĠDown":8419,"Ġengines":8420,"AB":8421,"Ġsummary":8422,"thon":8423,"ĠBack":8424,"Ġpilot":8425,"98":8426,"Ġfur":8427,"Ġ1930":8428,"ket":8429,"Ġfisher":8430,"ĠConfed":8431,"ĠJerusalem":8432,"Hist":8433,"Ġpsychology":8434,".'":8435,"Ġoxid":8436,")||":8437,"Ġwider":8438,"play":8439,"idal":8440,"mentation":8441,"Ġreverse":8442,"Ġengagement":8443,"Ġexecutive":8444,"Ġclassified":8445,"unct":8446,"ĠMassachusetts":8447,"Ġapplying":8448,"ĠBooks":8449,"Ġspoken":8450,"ĠContin":8451,"Ġwatching":8452,"Ġtempor":8453,"Ġestablishment":8454,"Ġfought":8455,"Ġfires":8456,"anted":8457,"Ġinvestigate":8458,"63":8459,"Ġranging":8460,"EF":8461,"Ġminds":8462,"Ġthread":8463,"Ġfeels":8464,"Ġuniversities":8465,"Ġsevent":8466,"ĠIns":8467,"ĠWal":8468,"Ġhygien":8469,"ĠLin":8470,"Ġmanager":8471,"Ġasp":8472,"Ġstreets":8473,"Ġprey":8474,"Ġpoetry":8475,"Ġtip":8476,"ĠModel":8477,"ĠCard":8478,"Ġequality":8479,"Ġdefinitely":8480,"oul":8481,"Ġcann":8482,"Ġclothes":8483,"opher":8484,"Ġentering":8485,"cyclopedia":8486,"ĠAL":8487,"ĠMot":8488,"raq":8489,"Ġlimitations":8490,"Ġbarriers":8491,"ĠSystems":8492,"ĠSpring":8493,"Ġfacilitate":8494,"aints":8495,"Sim":8496,"Ġdrag":8497,"Ġenormous":8498,"Ġguess":8499,"IF":8500,"world":8501,"Ġappeal":8502,"Ġhandling":8503,"Ġcolonies":8504,"Ġmovie":8505,"Using":8506,"Ġparad":8507,"raham":8508,"Ġperceived":8509,"ĠDC":8510,"Ġdism":8511,"Ġhall":8512,"Ġnutritional":8513,"Ġclients":8514,"Ġpassion":8515,"Ġsodium":8516,"ĠHead":8517,"Ġlabour":8518,"ĠImm":8519,"elve":8520,"Art":8521,"asma":8522,"Ġcorresponding":8523,"Ġcourts":8524,"ĠHarvard":8525,"Ġtelling":8526,"sen":8527,"Ġsettled":8528,"Ġactively":8529,"Ġconvey":8530,"Ġpromise":8531,"uther":8532,"chain":8533,"ĠJustice":8534,"Ġtargeted":8535,"ĠAvoid":8536,"Ġoptimal":8537,"jo":8538,"Ġextension":8539,"Ġdairy":8540,"Ġcraft":8541,"Ġdense":8542,"Ġtens":8543,"ailing":8544,"Ġlibr":8545,"ĠAgain":8546,"Ġspots":8547,"Ġmanual":8548,"07":8549,"flamm":8550,"Ġpainful":8551,"Ġchoosing":8552,"ĠLast":8553,"borne":8554,"Ġsessions":8555,"ĠParliament":8556,"imp":8557,"igned":8558,"Ġdiffer":8559,"ĠChristianity":8560,"ĠMic":8561,"Ġcelebrated":8562,"ĠÂ£":8563,"Ġdigestive":8564,"ĠPhilipp":8565,"Ġinfants":8566,"ĠAsk":8567,"Ġinterior":8568,"ashes":8569,"Ġassembly":8570,"wan":8571,"ĠPlay":8572,"Ġjoints":8573,"Sm":8574,"Ġemerged":8575,"Ġgrounds":8576,"Ġfo":8577,"Ġdies":8578,"Ġraising":8579,"Ġastronom":8580,"Ġdifferently":8581,"oves":8582,"you":8583,"Ġmembrane":8584,"Ġconclus":8585,"Ġassumed":8586,"Ġsaved":8587,"bel":8588,"Ġcul":8589,"hire":8590,"ĠMach":8591,"Ġwearing":8592,"Ġattribut":8593,"Ġgenome":8594,"erts":8595,"Ġtack":8596,"Ġoccas":8597,"Ġtrick":8598,"Ġstrike":8599,"ols":8600,"Ġgravity":8601,"ocolate":8602,"Ġcontinuing":8603,"Ġrequirement":8604,"Ġclassical":8605,"Ġempty":8606,"ga":8607,"Ġlosing":8608,"Ġcough":8609,"ĠBu":8610,"ĠBang":8611,"Ġhabitats":8612,"feed":8613,"ouds":8614,"Ġembry":8615,"Ġconvert":8616,"ĠIslands":8617,"Ġsaving":8618,"Ġcommittee":8619,"Ġtransmitted":8620,"ĠGulf":8621,"Ġdil":8622,"hemistry":8623,"agen":8624,"Ġ39":8625,"OM":8626,"Ġdevast":8627,"ĠPoint":8628,"Ġprevalence":8629,"made":8630,"Ġtraits":8631,"orig":8632,"books":8633,"Ġshaped":8634,"uan":8635,"assion":8636,"ĠEPA":8637,"Ġ37":8638,"zo":8639,"Ġweigh":8640,"Ġanticip":8641,"Ġspecialized":8642,"Ġaging":8643,"bell":8644,"Ġdistricts":8645,"Ġsulf":8646,"Ġconverted":8647,"box":8648,"rh":8649,"Ġsymbols":8650,"asm":8651,"Ġexplicit":8652,"Ġadapted":8653,"Ġaccompanied":8654,"Ġresc":8655,"Ġversus":8656,"ogy":8657,"ĠFact":8658,"Ġsculpt":8659,"Ġprofile":8660,"ĠLittle":8661,"Ġfet":8662,"Each":8663,"Ø§":8664,"Ġobst":8665,"Ġviral":8666,"ranean":8667,"Ġdiscussions":8668,"Ġcomplexity":8669,"raine":8670,"opl":8671,"Ġfriendly":8672,"neum":8673,"Ġgum":8674,"bec":8675,"Ġunn":8676,"avirus":8677,"Ġmarg":8678,"ĠWildlife":8679,"ĠCirc":8680,"Ġmature":8681,"Ðµ":8682,"ifice":8683,"61":8684,"Ġmeaningful":8685,"agan":8686,"ila":8687,"Ġkingdom":8688,"aka":8689,"ĠBlue":8690,"Ġ34":8691,"Ġlifetime":8692,"Ġprobability":8693,"Despite":8694,"Ġorb":8695,"fe":8696,"ĠUV":8697,"Ġacknowled":8698,"agnetic":8699,"encing":8700,"ĠConference":8701,"unc":8702,"ĠLaboratory":8703,"OD":8704,"Ġcreativity":8705,"izers":8706,"ĠFrancisco":8707,"Ġpets":8708,"Ġentit":8709,"Ġpill":8710,"Ġ2021":8711,"ĠAgriculture":8712,"Just":8713,"Ġbeat":8714,"mentia":8715,"olk":8716,"Ġbuff":8717,"Ġexploring":8718,"Ġloose":8719,"ĠWhether":8720,"Ġacting":8721,"obile":8722,"ĠNavy":8723,"ĠEconomic":8724,"Ġspinal":8725,"elescope":8726,"ĠDrug":8727,"CL":8728,"Ġhypothesis":8729,"Ġtransc":8730,"Ġenthus":8731,"ĠCub":8732,"Ġbee":8733,"ĠMur":8734,"unning":8735,"Ġcirculation":8736,"itting":8737,"section":8738,"Ġprofound":8739,"Ġnewspaper":8740,"Ġstrategic":8741,"operative":8742,"Ġjoy":8743,"Ġpersonnel":8744,"Ġtrem":8745,"Ġsad":8746,"Ġdrinks":8747,"Ġchair":8748,"enced":8749,"foot":8750,"ĠClick":8751,"Ġvegetable":8752,"Ġprovince":8753,"quality":8754,"Ġaccord":8755,"Ġorigins":8756,"inois":8757,"ĠRam":8758,"Ġcrypt":8759,"ĠOrig":8760,"ĠProcess":8761,"Ġtone":8762,"ackson":8763,"eutic":8764,"fast":8765,"pass":8766,"'.":8767,"roud":8768,"Ġrecre":8769,"Ġholiday":8770,"ologically":8771,"ati":8772,"Ġwouldn":8773,"Ġmedicines":8774,"Ġwelfare":8775,"Ġmyself":8776,"Ġreferences":8777,"Ġreplacement":8778,"Ġpupils":8779,"Ġinvolvement":8780,"ĠTestament":8781,"Ġmouse":8782,"http":8783,"Ġoutbreak":8784,"endar":8785,"Ġassert":8786,"Ġcooperation":8787,"ĠPortug":8788,"Ġheaven":8789,"Ġviolent":8790,"Ġbare":8791,"Ġsolving":8792,"specific":8793,"Use":8794,"Ġhat":8795,"Ġbegun":8796,"Ġcollective":8797,"Ġsavings":8798,"Ġcow":8799,"umer":8800,"Ġscenario":8801,"Ġexisted":8802,"ĠSaint":8803,"Ġhospitals":8804,"ĠGar":8805,"Ġresistant":8806,"Ġdiarr":8807,"Ġaggressive":8808,"Ġgly":8809,"Ġtact":8810,"Fig":8811,"thod":8812,"Ġbeans":8813,"EO":8814,"Ġworkplace":8815,"Ġbreaking":8816,"Ġreadily":8817,"ĠCode":8818,"Ġvirtually":8819,"Ġintention":8820,"Eng":8821,"62":8822,"Ġrestore":8823,"53":8824,"Ġattitudes":8825,"Ġcelebrate":8826,"Ġvibr":8827,"uscript":8828,"Ġmaxim":8829,"Ġcontrolling":8830,"oons":8831,"Ġ1920":8832,"Ġvaries":8833,"ĠIndeed":8834,"Ġabsorb":8835,"ĠSolar":8836,"zyme":8837,"Ġjuice":8838,"ĠIce":8839,"Ġstood":8840,"Ġbleeding":8841,"Ġhaven":8842,"Ġshorter":8843,"Ġpeer":8844,"ĠID":8845,"ĠCr":8846,"Ġmunicip":8847,"Ġgrades":8848,"ĠIraq":8849,"ĠImpro":8850,"Ġsuit":8851,"ĠTreatment":8852,"Ġfrust":8853,"Ġatoms":8854,"Ġthyroid":8855,"ĠInvest":8856,"Sec":8857,"Ġaccurately":8858,"esium":8859,"Ġorange":8860,"Ġchose":8861,"Ġminimize":8862,"Ġsoph":8863,"ĠIncre":8864,"Ġopinions":8865,"ĠAlexander":8866,"ĠStan":8867,"Ġrealized":8868,"Ġears":8869,"Ġsoils":8870,"dep":8871,"ĠOtt":8872,"cin":8873,"ĠCP":8874,"Ġwithdraw":8875,"Ġseriously":8876,"Ġgathered":8877,"Ġreaches":8878,"ĠAmazon":8879,"Ġgraduate":8880,"ensed":8881,"Ġaddressing":8882,"Ġsacred":8883,"text":8884,"Ġpossibilities":8885,"Ġclassic":8886,"Ġpione":8887,"Ġplanted":8888,"Ġnoticed":8889,"Ġvaried":8890,"Ġbarrier":8891,"ocity":8892,"apes":8893,"Ġpaying":8894,"ceans":8895,"EG":8896,"ĠMuslims":8897,"amil":8898,"Ġcub":8899,"estions":8900,"Source":8901,"Ġrestaur":8902,"Table":8903,"uber":8904,"flu":8905,"Ġcompetitive":8906,"Ġcoat":8907,"'d":8908,"Pub":8909,"Ġaddresses":8910,"Ùİ":8911,"52":8912,"Ġhal":8913,"Ġcontributing":8914,"Ġpowder":8915,"Ġshore":8916,"Ġpurchased":8917,"Ġcolony":8918,"olt":8919,"reens":8920,"assium":8921,"aware":8922,"Ġchromos":8923,"Ġpace":8924,"Ġnotion":8925,"2010":8926,"Ġtension":8927,"Ġprecip":8928,"ĠLevel":8929,"Ġconstra":8930,"Ġphotographs":8931,"lymp":8932,"Ġdevelops":8933,"Ġvictory":8934,"Ġclub":8935,"Ġannually":8936,"ĠBureau":8937,"ĠMax":8938,"thew":8939,"Ġarise":8940,"urable":8941,"Ġanger":8942,"Ġqualities":8943,"Ġuncle":8944,"Ġsongs":8945,"awn":8946,"ico":8947,"was":8948,"Ġinfluences":8949,"Â®":8950,"ĠLim":8951,"Ġspan":8952,"Ġham":8953,"Ġassociate":8954,"Ġgardens":8955,"Ġreturns":8956,"Ġdeploy":8957,"Ġapparently":8958,"Ġtab":8959,"Ġprox":8960,"Ġfunded":8961,"olves":8962,"Ġalarm":8963,"Ġforecast":8964,"ĠGall":8965,"Ġbreaks":8966,"Ps":8967,"Ġdivine":8968,"Ð°":8969,"ĠKey":8970,"Ġreveals":8971,"ĠPage":8972,"Like":8973,"Ġrepresentative":8974,"Ġscheme":8975,"ĠFil":8976,"ref":8977,"after":8978,"Ġprescribed":8979,"havior":8980,"Ġpractition":8981,"ĠSunday":8982,"Ġoutdoor":8983,"icking":8984,"ĠView":8985,"Ġarmed":8986,"Ġauto":8987,"ĠHindu":8988,"Ġgods":8989,"Ġverb":8990,"ĠBal":8991,"Then":8992,"Ġspecified":8993,"ĠVe":8994,"Tra":8995,"Ġdevelopments":8996,"Ġsurgical":8997,"ĠLos":8998,"Ġillnesses":8999,"ĠWikipedia":9000,"Ne":9001,"Ġprivile":9002,"plo":9003,"ĠFred":9004,"ĠHT":9005,"Ġsees":9006,"Ġpel":9007,"ais":9008,"Ġproductive":9009,"Ġcheap":9010,"Ġcurrency":9011,"uity":9012,"Ġburden":9013,"Ġtrace":9014,"RC":9015,"press":9016,"Ġwars":9017,"Ġprivacy":9018,"Ġseverity":9019,"Ġimmigrants":9020,"Ġhappiness":9021,"Ġclay":9022,"zymes":9023,"Ġthroat":9024,"ĠPhot":9025,"Ġrepresenting":9026,"ĠIndones":9027,"Ġglobe":9028,"Ġtends":9029,"ĠHa":9030,"Ġincent":9031,"Ġpenet":9032,"Ġliterally":9033,"Ġrestoration":9034,"Ġgif":9035,"iner":9036,"Ġpairs":9037,"Ġcontents":9038,"ilst":9039,"Ġunlikely":9040,"Ġconversion":9041,"Ġ1989":9042,"Ġinitiatives":9043,"Ġoils":9044,"Ġdisadvant":9045,"Who":9046,"Ġspoke":9047,"Ġcouncil":9048,"lock":9049,"ĠSeveral":9050,"Ġminimal":9051,"Ġpreparing":9052,"56":9053,"ĠLi":9054,"Ġanalyzed":9055,"ĠArts":9056,"ogens":9057,"icts":9058,"Ġdipl":9059,"Rel":9060,"Ġreflected":9061,"atus":9062,"Ġprime":9063,"Ġglac":9064,"erally":9065,"claim":9066,"chnology":9067,"----":9068,"ĠHelp":9069,"Ġscat":9070,"rowth":9071,"Ġtongue":9072,"rip":9073,"Ġflexibility":9074,"ĠDigital":9075,"Ġfascinating":9076,"lected":9077,"onday":9078,"Ġ?":9079,"ĠFarm":9080,"Ġoccupied":9081,"Ġindirect":9082,"Ġbasically":9083,"ĠPerhaps":9084,"ĠBuilding":9085,"ĠCost":9086,"onents":9087,"ĠVitamin":9088,"Ġinvention":9089,"Ġsale":9090,"Ġprayer":9091,"oded":9092,"ĠMid":9093,"Ġlivestock":9094,"Ġtill":9095,"Ġposts":9096,"Ġwash":9097,"ĠSmall":9098,"Ġcalculate":9099,"Ġash":9100,"kl":9101,"ĠNeed":9102,"cut":9103,"Ġincidence":9104,"ĠMess":9105,"Ã±":9106,"Ġsciences":9107,"Wor":9108,"rue":9109,"Ġeverywhere":9110,"Ġcouldn":9111,"rypt":9112,"shaped":9113,"ĠNO":9114,"reprene":9115,"Ġion":9116,"Two":9117,"ĠMexican":9118,"ĠMA":9119,"cule":9120,"power":9121,"erving":9122,"Ġmotivation":9123,"Ġwat":9124,"Ġsatisfact":9125,"Ġmetabolism":9126,"ĠTemple":9127,"Ġrestrictions":9128,"ois":9129,"Ġsug":9130,"Ġefficiently":9131,"Ġrecording":9132,"Ġaccomplish":9133,"ĠKids":9134,"adelph":9135,"ĠBa":9136,"aya":9137,"ĠSecretary":9138,"Ġdefault":9139,"Ġgift":9140,"Ġspacecraft":9141,"Ġchicken":9142,"!âĢĿ":9143,"Ð¾":9144,"issipp":9145,"Ġdict":9146,"Ġbuying":9147,"Ġdiscipline":9148,"Ġtomat":9149,"Ġdisplayed":9150,"sex":9151,"Ġpuzz":9152,"Ġregulate":9153,"ĠCreek":9154,"Ġvig":9155,"cho":9156,"ĠIllinois":9157,"ĠTown":9158,"izz":9159,"Ġownership":9160,"function":9161,"green":9162,"this":9163,"Ġmammals":9164,"ifer":9165,"ĠNob":9166,"ĠConvention":9167,"Ġoste":9168,"Ġ1940":9169,"Ġoverview":9170,"ĠMoses":9171,"Ġadvances":9172,"Ġwise":9173,"Ġbias":9174,"Ġadopt":9175,"Ġstrange":9176,"Ġdropped":9177,"ĠVietnam":9178,"Ġchurches":9179,"ĠPu":9180,"Ġquantities":9181,"ĠDaniel":9182,"BM":9183,"irable":9184,"ĠSP":9185,"54":9186,"Ġspecialist":9187,"Ġdating":9188,"outheast":9189,"ĠRight":9190,"Ġbene":9191,"ĠRemember":9192,"swe":9193,"Ġol":9194,"mond":9195,"mble":9196,"Ġscr":9197,"Ġembed":9198,"Ġpredicted":9199,"awa":9200,"SP":9201,"Rem":9202,"Ġultimate":9203,"Ġho":9204,"Ġpermit":9205,"Ġnuts":9206,"Ġwing":9207,"Ġtransferred":9208,"vation":9209,"Ġrequiring":9210,"Ġ120":9211,"Ġregistered":9212,"Gl":9213,"Ġplatforms":9214,"worth":9215,"2012":9216,"Ġimpair":9217,"abb":9218,"Ġstreams":9219,"ysical":9220,"TH":9221,"Ġwal":9222,"Ġcalm":9223,"ĠMinistry":9224,"ĠUk":9225,"Ġneurons":9226,"Ġvarying":9227,"vi":9228,"Ġpreserved":9229,"Ġspatial":9230,"sembly":9231,"ocated":9232,"Ġcaps":9233,"ĠCapt":9234,"ĠEmer":9235,"ifier":9236,"Ġenjoyed":9237,"ĠBiology":9238,"ĠChief":9239,"ĠAndrew":9240,"Ġsheep":9241,"Ġlogical":9242,"apped":9243,"2011":9244,"rub":9245,"Ġlegit":9246,"Ġcopyright":9247,"Ġmanagers":9248,"ĠVan":9249,"isd":9250,"ateral":9251,"Ġcurve":9252,"ĠOlymp":9253,"rin":9254,"Ġjudgment":9255,"Ġalgorithms":9256,"ĠTrust":9257,"ĠGreece":9258,"Ġdraft":9259,"stru":9260,"Ġsuddenly":9261,"otypes":9262,"Ġsusceptible":9263,"Ġdesignated":9264,"Ġrefused":9265,"adelphia":9266,"iterranean":9267,"ĠKent":9268,"ĠSenate":9269,"Ġidentical":9270,"Ġsuicide":9271,"Ġsurprise":9272,"Ġpayment":9273,"enter":9274,"aternal":9275,"Ġevolutionary":9276,"ĠJackson":9277,"Rep":9278,"Ġmask":9279,"Ġrevers":9280,"ĠHistorical":9281,"Ġborrow":9282,"Ġsons":9283,"plate":9284,"ĠFrid":9285,"Ġbears":9286,"Ġutility":9287,"Ġinstances":9288,"aterials":9289,"ĠCentury":9290,"ometer":9291,"also":9292,"Ġ42":9293,"Ġalgorithm":9294,"ĠSection":9295,"Ġconflicts":9296,"ĠCA":9297,"Ġlakes":9298,"stant":9299,"ustainable":9300,"Ġbeneath":9301,"ĠBeing":9302,"Ġpopularity":9303,"Ġdimin":9304,"Ġrobust":9305,"bered":9306,"Ġperfectly":9307,"Ġmeetings":9308,"Ġdish":9309,"Ġminority":9310,"Ġdisturb":9311,"uis":9312,"ĠAff":9313,"Ġhydro":9314,"ceptions":9315,"isations":9316,"Ġunderground":9317,"Ġarthritis":9318,"Ġchannels":9319,"mail":9320,"Ġregime":9321,"sk":9322,"Ġshr":9323,"51":9324,"Ġdocumented":9325,"ĠSon":9326,"Ġanalyses":9327,"Ġpaintings":9328,"Ġrooms":9329,"Ġreign":9330,"ĠStandard":9331,"Ġsister":9332,"Please":9333,"ĠDiet":9334,"Ġinstallation":9335,"Ġdimensions":9336,"iders":9337,"ĠCrit":9338,"issance":9339,"Ġrod":9340,"Ġtom":9341,"ĠNext":9342,"acles":9343,"Ġworker":9344,"ĠColon":9345,"efficient":9346,"Ġswelling":9347,"ĠFed":9348,"Ġpasses":9349,"issippi":9350,"Ġzones":9351,"oca":9352,"Ġfinish":9353,"Ġthemes":9354,"oler":9355,"86":9356,"Ġrevenue":9357,"ĠCop":9358,"Ġestablishing":9359,"Mar":9360,"UL":9361,"Ġtransformation":9362,"Ġstatistical":9363,"Ġhealthier":9364,"Ġwings":9365,"Ġalternatives":9366,"Ġreef":9367,"EA":9368,"Ġdebris":9369,"Ġster":9370,"oked":9371,"Ġemployee":9372,"ĠTH":9373,"Ġoptical":9374,"ĠSqu":9375,"2009":9376,"Ġtheoretical":9377,"ĠMedia":9378,"ĠHeritage":9379,"Ġputs":9380,"terior":9381,"Ġdistinguish":9382,"pre":9383,"Ġsimultaneously":9384,"Ġencounter":9385,"Ġsleeping":9386,"Reg":9387,"ĠMove":9388,"regon":9389,"Ġherself":9390,"aved":9391,"bury":9392,"rait":9393,"Ġachieving":9394,"Ġ(âĢľ":9395,"uled":9396,"Ġhygiene":9397,"trans":9398,"aneous":9399,"ĠHence":9400,"isting":9401,"Learn":9402,"Ġvolunteers":9403,"Ġestate":9404,"Ġpartnership":9405,"Ke":9406,"ĠLew":9407,"elly":9408,"ĠDesc":9409,"Ġdescend":9410,"Ġvisits":9411,"Ġcompos":9412,"Ġreproductive":9413,"Ġmagnitude":9414,"Ġinch":9415,"Ġsubsc":9416,"Ġcandidate":9417,"Ġcellular":9418,"Ġregulatory":9419,"Ġparticle":9420,"orus":9421,"Ġalert":9422,"Ġinherent":9423,"Ġwooden":9424,"Ġenhanced":9425,"Ġattributed":9426,"ritten":9427,"ĠWhich":9428,"ĠHum":9429,"Ġapplies":9430,"Man":9431,"93":9432,"ĠDie":9433,"Ġtransplant":9434,"Ġgate":9435,"Ġincorporate":9436,"ught":9437,"Ġmemor":9438,"rics":9439,"Ġranges":9440,"Ġsoy":9441,"Ġsending":9442,"Ġencouraging":9443,"Ġvillages":9444,"ĠRail":9445,"iblical":9446,"Ġcontamination":9447,"Ġaccounting":9448,"Ġinev":9449,"inth":9450,"urse":9451,"Ġprovision":9452,"iler":9453,"Ġrainfall":9454,"Ġearthquake":9455,"ĠAntar":9456,"Ġelectrons":9457,"regular":9458,"ĠProble":9459,"astics":9460,"Ġacceptable":9461,"ĠMicrosoft":9462,"Ġinhabitants":9463,"Ġdiets":9464,"Ġisolation":9465,"Ġabundance":9466,"Ġrestricted":9467,"Ġphones":9468,"mental":9469,"ĠField":9470,"ĠAbraham":9471,"ĠObama":9472,"Ġseparation":9473,"Ġconsequence":9474,"Ġeleph":9475,"Ġalumin":9476,"Ġtort":9477,"Ġmerch":9478,"ĠJacob":9479,"ologic":9480,"Ġimplementing":9481,"ĠConsider":9482,"Ġinvasive":9483,"ĠAction":9484,"ĠAlaska":9485,"Ġsummar":9486,"Ġteens":9487,"Ġabsolutely":9488,"Ġpackage":9489,"gments":9490,"ĠDam":9491,"57":9492,"Ġsegment":9493,"Ġneuro":9494,"Ġtherm":9495,"Ġfraction":9496,"urd":9497,"zone":9498,"Ġencl":9499,"Ġglob":9500,"ouri":9501,"ĠEll":9502,"Ġstere":9503,"itic":9504,"Sub":9505,"Ġgest":9506,"Ġhybrid":9507,"ĠLat":9508,"Ġprosper":9509,"Ġdistant":9510,"Ġfavour":9511,"ĠWriting":9512,"ĠPlace":9513,"Ġbonds":9514,"ĠDictionary":9515,"2013":9516,"Ġunem":9517,"Ġsymptom":9518,"Ġhonest":9519,"Ġdeer":9520,"Ġpersu":9521,"ĪĴ":9522,"friendly":9523,"ivities":9524,"Ġbought":9525,"western":9526,"about":9527,"Ġexclud":9528,"Ġalongside":9529,"economic":9530,"Ġperpet":9531,"bow":9532,"Ġkg":9533,"Ġcycles":9534,"ghan":9535,"ospel":9536,".:":9537,"eem":9538,"Ġattempted":9539,"thur":9540,"Ġfaculty":9541,"Ġtotally":9542,"Ġfifth":9543,"Researchers":9544,"Ġallergies":9545,"eras":9546,"Ġamino":9547,"96":9548,"enda":9549,"Ge":9550,"2008":9551,"Health":9552,"Ġattractive":9553,"Ġknee":9554,"ĠFDA":9555,"Ġvisiting":9556,"ĠMediterranean":9557,"Ġft":9558,"ĠNorm":9559,"Ġwinds":9560,"Ġabsorption":9561,"ĠHaving":9562,"Ġsectors":9563,"ĠCommons":9564,"Ġremem":9565,"Ġincorporated":9566,"97":9567,"Ġprecisely":9568,"Ġneural":9569,"Ġintegrity":9570,"Ġlingu":9571,"Ġcorporate":9572,"ĠPhysical":9573,"Ġenforcement":9574,"Ġcig":9575,"ĠHard":9576,"Ġassignment":9577,"Ġconsent":9578,"emies":9579,"Ġlecture":9580,"Ġhopes":9581,"Ġpeers":9582,"inces":9583,"ji":9584,"Ġdevelopers":9585,"owered":9586,"92":9587,"Scient":9588,"Ġruled":9589,"Ġdischarge":9590,"ĠDue":9591,"Ġspreading":9592,"ĠCT":9593,"Ġdoses":9594,"Ġsediment":9595,"rizona":9596,"ĠPDF":9597,"Ġdementia":9598,"ĠArea":9599,"ĠLook":9600,"ĠLater":9601,"Ġstabil":9602,"ĠÂ©":9603,"Ġelevated":9604,"ĠSupport":9605,"ideo":9606,"Ġpert":9607,"ivation":9608,"Ġentitled":9609,"Ġdiagnostic":9610,"Ġblank":9611,"Ġhol":9612,"Ġconfusion":9613,"Ġirrigation":9614,"ĠMusic":9615,"han":9616,"Ġtumors":9617,"Ġdevelopmental":9618,"ĠMaster":9619,"erb":9620,"Ġelections":9621,"Ġexpanding":9622,"Ġsystematic":9623,"rust":9624,"worm":9625,"Ġreserved":9626,"Ġdramatically":9627,"Ġsuggesting":9628,"orters":9629,"Ġaside":9630,"elihood":9631,"ictions":9632,"Yes":9633,"Ġscales":9634,"ouses":9635,"Ġbron":9636,"Ġrelate":9637,"sters":9638,"Ġneurolog":9639,"Ġinvasion":9640,"aven":9641,"ĠBlood":9642,"best":9643,"Ġmodule":9644,"Ġequipped":9645,"ĠEgyptian":9646,"ĠGarden":9647,"Ġoccasionally":9648,"ĠStation":9649,"ĠCH":9650,"Ġmanuscript":9651,"ools":9652,"Ġrays":9653,"Ġcream":9654,"found":9655,"eling":9656,"Ġmistakes":9657,"ĠFish":9658,"ĠPractice":9659,"Ġelementary":9660,"ĠRNA":9661,"Ġphilosoph":9662,"Ġcited":9663,"Ġpredom":9664,"ĠMain":9665,"ĠOften":9666,"Ġchocolate":9667,":||":9668,"Ġpesticides":9669,"oline":9670,"Ġprevents":9671,"Ġabandoned":9672,"profit":9673,"Ġrib":9674,"Ġ250":9675,"ĠMississippi":9676,"300":9677,"Ġcontainers":9678,"Ġhier":9679,"Ġsubsid":9680,"ĠMarine":9681,"ĠNutrition":9682,"Ġendangered":9683,"ĠPass":9684,"Ġprolong":9685,"Ġdistinction":9686,"Ġpipe":9687,"Ġtranslated":9688,"author":9689,"eller":9690,"Students":9691,"atoes":9692,"rose":9693,"Ġelderly":9694,"quiry":9695,"á¹":9696,"Ġcontinent":9697,"Ġdynamics":9698,"Ġwhenever":9699,"Ġdoors":9700,"Ġcitizen":9701,"ĠPhiladelphia":9702,"Ġcontaminated":9703,"Ġamongst":9704,"!!":9705,"Ġbroader":9706,"Ġplates":9707,"ĠJr":9708,"Ġcyl":9709,"Ġflavor":9710,"ĠOffic":9711,"ffe":9712,"Ġlegend":9713,"Ġimproves":9714,"itus":9715,"ĠNeu":9716,"Ġstrains":9717,"ugs":9718,"Ġreflects":9719,"Ġrepeat":9720,"Ġcombine":9721,"Ġ1000":9722,"ĠAst":9723,"expected":9724,"Ġdried":9725,"Ġceleb":9726,"Ġancestors":9727,"Ġending":9728,"ador":9729,"olph":9730,"ĠFriday":9731,"ricks":9732,"di":9733,"Ġpartial":9734,"ĠPain":9735,"Ġengineer":9736,"Ġneighb":9737,"Ġprol":9738,"Ġcodes":9739,"page":9740,"arks":9741,"host":9742,"ethe":9743,"Ġbrains":9744,"Ġcopies":9745,"Aut":9746,"Ġoperated":9747,"Ġcertific":9748,"Ġsensory":9749,"pdf":9750,"Ġsynthetic":9751,"Ġreflection":9752,"Ġstraw":9753,"Ġsurprising":9754,"lear":9755,"Ġadoption":9756,"Ġminister":9757,"Ġvalve":9758,"Ġcrack":9759,"Ġmetabolic":9760,"ĠSanta":9761,"Ġsurrounded":9762,"ighth":9763,"Ġsurveys":9764,"Ġresemb":9765,"Ġbull":9766,"ĠMajor":9767,"Ġscholar":9768,"Ġfant":9769,"Ġburned":9770,"ĠWales":9771,"Ġmedieval":9772,"iano":9773,"Ġaccidents":9774,"Ġhurt":9775,"Ġproposal":9776,"Ġextraord":9777,"Ġtough":9778,"Ġow":9779,"Ġresponsibilities":9780,"Ġapps":9781,"Ġholy":9782,"Ġclouds":9783,"Ġenzymes":9784,"Ġclassification":9785,"ĠBased":9786,"Ġrepet":9787,"even":9788,"Ġcomplement":9789,"anwhile":9790,"Ġcuts":9791,"Ġrough":9792,"ĠCDC":9793,"Ġ44":9794,"Ġdeposits":9795,"Ġtendency":9796,"Ġcanal":9797,"Ġmorph":9798,"Ġtracking":9799,"igious":9800,"ĠPhD":9801,"ĠHit":9802,"Ġdemocratic":9803,"unar":9804,"Ġabundant":9805,"Ġexcav":9806,"ika":9807,"ĠVar":9808,"Ġtrading":9809,"etically":9810,"Ġguarantee":9811,"doi":9812,"ĠSus":9813,"ATION":9814,".),":9815,"Ġfilms":9816,"ĠOregon":9817,"ĠPoly":9818,"nia":9819,"ĠUnlike":9820,"Ġsalmon":9821,"Ġpenal":9822,"Ġdentist":9823,"OP":9824,"Ġsuggestions":9825,"Ġsovere":9826,"Ġconsistently":9827,"ĠRest":9828,"Ġavoiding":9829,"oving":9830,"Ġduties":9831,"Ġconfident":9832,"ĠPL":9833,"Ġassessments":9834,"arios":9835,"ĠAssessment":9836,"Ġbroke":9837,"Ġvom":9838,"duction":9839,"DL":9840,"Ġanthrop":9841,"ĠOnt":9842,"87":9843,"inery":9844,"ĠBern":9845,"Ġlikelihood":9846,"Ġkitchen":9847,"ĠOcc":9848,"Ġcivilization":9849,"redit":9850,"Ġfitness":9851,"ĠIndigenous":9852,"ĠWeek":9853,"Ġfinance":9854,"Ġchamber":9855,"Ġproducers":9856,"Ġ2022":9857,"Ġdiagram":9858,"Ġlob":9859,"ĠSelf":9860,"ricane":9861,"Ġconsuming":9862,"Ġvelocity":9863,"Ġbrush":9864,"lectric":9865,"Ġcollapse":9866,"ĠOS":9867,"Ġweaken":9868,"Ġutilized":9869,"ori":9870,"Ġthank":9871,"Ġarrival":9872,"isticated":9873,"Ġcollections":9874,"Ġappreciate":9875,"Ġswimming":9876,"Ġnoun":9877,"Ġpose":9878,"ĠProduct":9879,"isition":9880,"Ġinfectious":9881,"Ġ1988":9882,"Ġsemi":9883,"OW":9884,"illance":9885,"ctu":9886,"ĠFair":9887,"Ġthirty":9888,"GE":9889,"Ġtherapeutic":9890,"pos":9891,"National":9892,"Ġbottle":9893,"Click":9894,"ĠConnect":9895,"Ġreputation":9896,"Ġshoulder":9897,"Ġcandidates":9898,"Ġdivide":9899,"Ġerosion":9900,"III":9901,"Ġgerm":9902,"ependence":9903,"Ġresidential":9904,"2007":9905,"ective":9906,"Finally":9907,"Ġdisag":9908,"Up":9909,"ĠCorpor":9910,"anz":9911,"Ġsocio":9912,"Ġreasoning":9913,"ĠAncient":9914,"Ġregister":9915,"cor":9916,"imen":9917,"Ġrelating":9918,"utical":9919,"ĠTurk":9920,"Ġrh":9921,"otion":9922,"**":9923,"Ġpartly":9924,"Ġschem":9925,"Ġeaten":9926,"Ġselling":9927,"Ġpunishment":9928,"Ġstriking":9929,"Ġsurvived":9930,"Ġbeach":9931,"ĠMind":9932,"Ġcable":9933,"pert":9934,"ĠWilson":9935,"Ġretain":9936,"engers":9937,"berries":9938,"Ġreh":9939,"Ġshoes":9940,"ĠLine":9941,"Ġapproval":9942,"omed":9943,"ĠPut":9944,"Ġimagination":9945,"sub":9946,"Ġpollut":9947,"Ġatmospheric":9948,"Ġhorizontal":9949,"Ġmemories":9950,"ropol":9951,"Ġpneum":9952,"Ġorganism":9953,"Ġallergic":9954,"Ġpanc":9955,"Ġinfluenza":9956,"Ġspons":9957,"Ġnursing":9958,"Ġdescribing":9959,"ĠLED":9960,"jud":9961,"Ġradi":9962,"Ġconclusions":9963,"ĠMountain":9964,"ubble":9965,"Ġdiscom":9966,"ivate":9967,"ĠPaper":9968,"date":9969,"Ġbell":9970,"ĠArizona":9971,"Ĥ¬":9972,"reshold":9973,"Ġintra":9974,"Ġdisk":9975,"BD":9976,"Ġmyster":9977,"Ġfactory":9978,"Ġoceans":9979,"ĠEncyclopedia":9980,"Any":9981,"osaur":9982,"rium":9983,"ĠAngeles":9984,"Ġhazards":9985,"itzer":9986,"ĠPrint":9987,"Ġmagazine":9988,"Ġpredators":9989,"Ġhung":9990,"Ġspine":9991,"aping":9992,"Ġfingers":9993,"Ġpine":9994,"Post":9995,"Ã¨":9996,"Ġgrammar":9997,"ker":9998,"Ġ600":9999,"Ġonset":10000,"\")":10001,"Ġul":10002,"ĠThanks":10003,"Ġthrow":10004,"Os":10005,"wa":10006,"Ġgentle":10007,"Ġsheets":10008,"ĠApple":10009,"Ġspeaker":10010,"Ġphysicians":10011,"ĠBerlin":10012,"Ġintr":10013,"egin":10014,"ĠYes":10015,"ĠOthers":10016,"Ġpainted":10017,"ometimes":10018,"akespe":10019,"Ġhumidity":10020,"Ġbite":10021,"obic":10022,"esthetic":10023,"list":10024,"rible":10025,"Ġrent":10026,"Ġathletes":10027,"Ġinjured":10028,"Ac":10029,"2014":10030,"Ġes":10031,"ĠAdam":10032,"Ġinvented":10033,"Ġbinding":10034,"Ġfan":10035,"Ġshares":10036,"Ġenzyme":10037,"Ġerect":10038,"Ġensures":10039,"Through":10040,"ĠADHD":10041,"nesota":10042,"Ġessays":10043,"Ġwidth":10044,"ications":10045,"ĠRather":10046,"Ġmuc":10047,"Ġcamps":10048,"grade":10049,"Ġloud":10050,"ĠUnivers":10051,"ĠLuc":10052,"imensional":10053,"Ġrecall":10054,"Ġinflation":10055,"duate":10056,"athan":10057,"emor":10058,"Ġevaluated":10059,"ĠNeg":10060,"fly":10061,"ĠAC":10062,"Ġvag":10063,"Ġdying":10064,"ĠProm":10065,"ĠBrain":10066,"akespeare":10067,"ĠWilliams":10068,"Ġcollecting":10069,"ders":10070,"effective":10071,"acle":10072,"Ġtwelve":10073,"ĠAssembly":10074,"2006":10075,"Ġbags":10076,"ieth":10077,"Ġattended":10078,"da":10079,"Ġconvenient":10080,"Ġreceives":10081,"Ġstretch":10082,"Ġcrimes":10083,"Ġ(\"":10084,"Ġoffices":10085,"Ġadolescents":10086,"ctors":10087,"Ġshelter":10088,"Ġjurisd":10089,"itate":10090,"ayer":10091,"Ġloan":10092,"Ġnumer":10093,"Ġblo":10094,"Ġmolecule":10095,"ĠBetween":10096,"healthy":10097,"nea":10098,"Ġlanding":10099,"Ġsew":10100,"Ġmile":10101,",âĢĻ":10102,"Ġconsisting":10103,"Ġpale":10104,"Ġfiction":10105,"Ġvalley":10106,"ĠSud":10107,"Ġsurviv":10108,"Ġmurder":10109,"ĠShould":10110,"adequ":10111,"Ġappointment":10112,"Ġmutations":10113,"ĠIde":10114,"Ġaffairs":10115,"step":10116,"Ġintelligent":10117,"Ġpleasure":10118,"Ġmisc":10119,"Ġthoroughly":10120,"ĠFer":10121,"they":10122,"Ġcontrad":10123,"ĠSimilarly":10124,"ĠTwitter":10125,"oning":10126,"Ġseal":10127,"develop":10128,"TP":10129,"case":10130,"Ġreviewed":10131,"Ġfibers":10132,"ĠRen":10133,"Ġadministrative":10134,"Ġindependently":10135,"Ġfertilizer":10136,"Ġdisplays":10137,"Ġinvestments":10138,"ooked":10139,"arded":10140,"Ġwake":10141,"Ġseiz":10142,"Ġcircular":10143,"ĠHyd":10144,"Ġninet":10145,"Ġverte":10146,"who":10147,"Ġbrothers":10148,"Ġadaptation":10149,"83":10150,"Ġphenomena":10151,"Ġsubmit":10152,"ĠIsa":10153,"Ġwage":10154,"Ġexhibition":10155,"ela":10156,"Ġbusy":10157,"Ġloop":10158,"Ġstruck":10159,"ĠNic":10160,"Ġfluor":10161,"inator":10162,"Ġshade":10163,"Ġpests":10164,"Ġproud":10165,"Ġgrams":10166,"ĠPope":10167,"Ġindoor":10168,"ĠClinical":10169,"akh":10170,"ĠComputer":10171,"DR":10172,"Ġempire":10173,"ĠMissouri":10174,"ĠSchools":10175,"atile":10176,"action":10177,"iances":10178,"Ġpotassium":10179,"stic":10180,"abled":10181,"Ġattributes":10182,"Ġthrive":10183,"Ġofficially":10184,"Will":10185,"Ġadjacent":10186,"Ġabsorbed":10187,"istically":10188,"Ġdefinitions":10189,"Ġhighlights":10190,"Ġvaccination":10191,"Ġtoile":10192,"gebra":10193,"ĠStandards":10194,"ĠLog":10195,"ĠTurkey":10196,"Ġpassword":10197,"ecessary":10198,"BI":10199,"cled":10200,"olds":10201,"uv":10202,"Mod":10203,"Ġenabling":10204,"Ġber":10205,"ĠBM":10206,"ĠTheory":10207,"Ġparks":10208,"Ġoperational":10209,"fire":10210,"Ġcampus":10211,"Ġdiscomfort":10212,"Ġthesis":10213,"Ġliberal":10214,"Ġemit":10215,"inates":10216,"ĠWed":10217,"Ġcharges":10218,"raid":10219,"Ġpartially":10220,"there":10221,"ipation":10222,"Ġgray":10223,"Ġ85":10224,"Ġcave":10225,"dess":10226,"ĠTraining":10227,"Ġlicense":10228,"Ġnodes":10229,"anol":10230,"Ġfatal":10231,"ĠJones":10232,"Ġboundary":10233,"inance":10234,"Ġwireless":10235,"isons":10236,"Ġpod":10237,"Ġcosm":10238,"ĠBest":10239,"Ġcloth":10240,"oting":10241,"Ġrefugees":10242,"Ġmeditation":10243,"aceutical":10244,"Ġsomewhere":10245,"Ġfreely":10246,"ĠOp":10247,"ashed":10248,"ĠBol":10249,"ĠWalk":10250,"Ġtower":10251,"ĠGM":10252,"Ġstems":10253,"formed":10254,"94":10255,"Ġperspectives":10256,"ĠMaryland":10257,"Ġ×":10258,"Ġsophisticated":10259,"Ġmalaria":10260,"Ġtolerance":10261,"ĠKn":10262,"Ġpromising":10263,"Ġcrown":10264,"ocument":10265,"Ġedges":10266,"Che":10267,"bage":10268,"Ġwelcome":10269,"ãģ":10270,"ĠJava":10271,"burn":10272,"Ġlasting":10273,"Ġspeeds":10274,"enh":10275,"ĠLocal":10276,"ĠCulture":10277,"velength":10278,"Ġentreprene":10279,"Ġartistic":10280,"Ġstruggling":10281,"Trans":10282,"inch":10283,"Ġspark":10284,"forced":10285,"ĠAllah":10286,"ĠPrim":10287,"yes":10288,"BA":10289,"ulates":10290,"Ġsubsequently":10291,"afe":10292,"Ġassistant":10293,"Ġauthentic":10294,"91":10295,"arten":10296,"Ġsequences":10297,"Ġeconomics":10298,"aze":10299,"ĠDyn":10300,"ĠBell":10301,"Research":10302,"Ġbeet":10303,"ĠJersey":10304,"omal":10305,"rons":10306,"Ġparticipating":10307,"2005":10308,"Ġdepr":10309,"QL":10310,"Ġtag":10311,"Ġassessed":10312,"Ġexport":10313,"Ġarc":10314,"Ġentrance":10315,"Ġspeakers":10316,"Ġindicating":10317,"Ġborders":10318,"ÙĦ":10319,"ĠText":10320,"Ġsacrifice":10321,"ĠFig":10322,"Ġaggreg":10323,"Ġmobility":10324,"Ġplacing":10325,"Ġpest":10326,"Ġreturning":10327,"Ġà¤":10328,"Ġpromotes":10329,"plex":10330,"Ġacquire":10331,"Ġgaps":10332,"Ġabol":10333,"ĠNY":10334,"ĠUnderstanding":10335,"Ġgrace":10336,"Ġattacked":10337,"Ġprevented":10338,"ĠTenn":10339,"ĠNether":10340,"ĠLuther":10341,"aylor":10342,"Ġworkshop":10343,"ĠApplic":10344,"Ġrefrig":10345,"Ġorientation":10346,"Ġpink":10347,"Ġintensive":10348,"Ġdiarrhea":10349,"Ġencourages":10350,"Ġcalendar":10351,"ĠTar":10352,"cts":10353,"2000":10354,"ĠPeace":10355,"ĠSn":10356,"PV":10357,"Ġaffordable":10358,"Ġprisoners":10359,"Ġawarded":10360,"AF":10361,"Ġunexpected":10362,"ĠPoland":10363,"Ġpursue":10364,"Ġtoxins":10365,"Ġdrops":10366,"Ġcheese":10367,"security":10368,"ĠGDP":10369,"Ġdivers":10370,"Ġ1986":10371,"Ġvine":10372,"orious":10373,"Ġlibraries":10374,"ĠFuture":10375,"Ġintermedi":10376,"Ġprone":10377,"Ġcommod":10378,"ĠStill":10379,"atching":10380,"Ġmonthly":10381,"achel":10382,"84":10383,"ĠMrs":10384,"Ġfles":10385,"uine":10386,"Ġmissions":10387,"Ġhistorians":10388,"Ġpock":10389,"Ġperf":10390,"ĠThird":10391,"Ð¸":10392,"thal":10393,"Ġposted":10394,"ĠAsh":10395,"Ġ43":10396,"estone":10397,"ĠJack":10398,"Ġretail":10399,"Ġpond":10400,"Ġ1945":10401,"Ġworn":10402,"Ġanat":10403,"Ġimpressive":10404,"Ġantibodies":10405,"ĠMonday":10406,"Ġkilometers":10407,"Ġdrives":10408,"Ġhomework":10409,"Ġrepresentatives":10410,"vy":10411,"Ġdeliber":10412,"ĠMinnesota":10413,"Further":10414,"rint":10415,"ylon":10416,"iac":10417,"Ġsampling":10418,"Ġscenarios":10419,"otten":10420,"Ġtanks":10421,"Ġfemin":10422,"ĠBuddh":10423,"Ġelabor":10424,"Ġbullying":10425,"Ġconnecting":10426,"Ġdesigning":10427,"ĠWithin":10428,"ĠHem":10429,"Ġassault":10430,"ĠHo":10431,"2017":10432,"ntil":10433,"Ġseasonal":10434,".||":10435,"Ġbark":10436,"ĠScript":10437,"Ġprogressive":10438,"Ġvice":10439,"Ġnotable":10440,"ĠCharl":10441,"umns":10442,"orer":10443,"iy":10444,"ĠTurn":10445,"ĠCall":10446,"Ġplasma":10447,"PD":10448,"ques":10449,"inflamm":10450,"Ġweekly":10451,"Ġgran":10452,"Ġstakeholders":10453,"Ġbeam":10454,"Ġaltered":10455,"Ġmanufacturer":10456,"Ġ%":10457,"ĠAud":10458,"ĠCS":10459,"ĠImport":10460,"arians":10461,"ypically":10462,"Ġmilit":10463,"ĠKorean":10464,"ermat":10465,"Ġprescription":10466,"Ġcontributes":10467,"Ġavoided":10468,"Ġforever":10469,"ĠCR":10470,"Ġreson":10471,"thood":10472,"Ġaccomplished":10473,"ĠSav":10474,"Ġgear":10475,"aver":10476,"Ġrom":10477,"Ġboxes":10478,"law":10479,"ĠHig":10480,"eterm":10481,"cal":10482,"onin":10483,"ĠFac":10484,"ĠProper":10485,"Ġmodeling":10486,"angel":10487,"Ġdispers":10488,"ĠMap":10489,"Ġteaches":10490,"Ġdistances":10491,"Ġmirror":10492,"Ġupdate":10493,"Ġalike":10494,"ĠGuard":10495,"ĠBat":10496,"Ġpediatric":10497,"Ġreviews":10498,"Ġdistract":10499,"dd":10500,"Ġreservoir":10501,"Ġmapping":10502,"Ġsubmitted":10503,"Ġdestination":10504,"Ġcarries":10505,"dominal":10506,"Ġempower":10507,"Ġhide":10508,"ĠExamples":10509,"Ġdiver":10510,"bul":10511,"ĠShort":10512,"ĠDifferent":10513,"Def":10514,"Ġtrail":10515,"Ġlegacy":10516,"Ġpatent":10517,"Ġtraveling":10518,"IST":10519,"Ġtransactions":10520,"Ġresolve":10521,"income":10522,"efits":10523,"original":10524,"Ġtourism":10525,"Ġloyal":10526,"Ġcompliance":10527,"Ġportray":10528,"Ġcourage":10529,"Ġaxis":10530,"ĠResearchers":10531,"Ġheal":10532,"Ġelig":10533,"Back":10534,"ĠStory":10535,"ĠMother":10536,"CI":10537,"iatric":10538,"Ġimportantly":10539,"Ġbroadcast":10540,"Ġshallow":10541,"ĠDarwin":10542,"Google":10543,"Ġdiscl":10544,"ĠPrince":10545,"sequently":10546,"ĠEnt":10547,"ĠPhilos":10548,"Ġqualified":10549,"ĠSem":10550,"Ġfault":10551,"Ġcluster":10552,"arium":10553,"ĠNOT":10554,"Ġdecreases":10555,"ĠRedu":10556,"Ġexcited":10557,"Ġ64":10558,"ĠScientific":10559,"Ġbills":10560,"Ġargues":10561,"ulture":10562,"81":10563,"Ġpou":10564,"Ġpreservation":10565,"ĠCarib":10566,"Ġrobots":10567,"Ġeducated":10568,"Ġinspiration":10569,"Ġcapability":10570,"Ġ1987":10571,"Ġflooding":10572,"iosity":10573,"ĠQuestions":10574,"ĠWorking":10575,"vit":10576,"Ġsymb":10577,"Ġwashing":10578,"Ġappet":10579,"ressing":10580,"Ġarrive":10581,"Ġ~":10582,"vol":10583,"Ġdesk":10584,"Ġ1900":10585,"reatment":10586,"Ġutilize":10587,"Ġrender":10588,"Ġconcentrated":10589,"Ġbrowser":10590,"iph":10591,"Ġcycl":10592,"Ġmini":10593,"Ġinjection":10594,"ĠNep":10595,"Ġbearing":10596,"ĠQur":10597,"Ġharsh":10598,"early":10599,"Ġcontrary":10600,"Ġessence":10601,"plan":10602,"ĠGovernor":10603,"Ġarranged":10604,"Ġaster":10605,"Ġexpressions":10606,"Ġexch":10607,"Ġcolored":10608,"Ġextinction":10609,"Ġdistinctive":10610,"Cs":10611,"iscons":10612,"ĠOntario":10613,"Ġtherapies":10614,"Ġindicators":10615,"Ġroutes":10616,"Ġnic":10617,"Ġthreshold":10618,"800":10619,"ĠOrder":10620,"ĠInteg":10621,"generation":10622,"Ġfallen":10623,"Ġcarbohydrates":10624,"ĠCorps":10625,"ĠArm":10626,"istent":10627,"psy":10628,"atories":10629,"Ġbind":10630,"isconsin":10631,"ĠTeachers":10632,"ĠMatthew":10633,"Ġcameras":10634,"Ġtribe":10635,"Ġtremend":10636,"Cal":10637,"Ġdialogue":10638,"ĠBon":10639,"Ġ41":10640,"ĠName":10641,"Ġdefects":10642,"high":10643,"vae":10644,"Ġhardly":10645,"thodox":10646,"Ġdrainage":10647,"Ġpersistent":10648,"Ġtreaty":10649,"Ġtransformed":10650,"Ġallergy":10651,"Ġpackaging":10652,"ĠON":10653,"ĠHitler":10654,"Ġexplored":10655,"Ġ978":10656,"abilitation":10657,"iotic":10658,"Ġrats":10659,"Ġfluids":10660,"Ġearned":10661,"lam":10662,"Ġcelebration":10663,"Ġsafer":10664,"ĠStephen":10665,"Ġprovisions":10666,"ĠDavis":10667,"Ġdevoted":10668,"ĠClub":10669,"Ġverse":10670,"ĠDun":10671,"Ġadministered":10672,"Ġfoster":10673,"ĠBush":10674,"Ġsettlers":10675,"Ġimmunity":10676,"phones":10677,"Ġprecision":10678,"chron":10679,"Ġjew":10680,"Ġcomparing":10681,"âĢĿ)":10682,"Ġhypert":10683,"commun":10684,"View":10685,"ĠAIDS":10686,"ropriate":10687,"Ġmira":10688,"umbers":10689,"run":10690,"Children":10691,"Ġcontinuously":10692,"Ass":10693,"Ġoverwhelming":10694,"Ġconfused":10695,"Ġconducting":10696,"gregation":10697,"Ġsail":10698,"Ġsel":10699,"Ġsuspect":10700,"Ġembedded":10701,"ĠSTEM":10702,"High":10703,"gged":10704,"ĠES":10705,"Ġprogression":10706,"ĠJim":10707,"ĠRisk":10708,"Ġzinc":10709,"sized":10710,"Ġundergo":10711,"PL":10712,"Ġrubber":10713,"anas":10714,"Ġafraid":10715,"Ġgenerating":10716,"Ġirregular":10717,"Ġnerves":10718,"ĠDemocratic":10719,"ĠNetherlands":10720,"Ġprotest":10721,"oa":10722,"ĠJon":10723,"Ġregen":10724,"Ġdow":10725,"ĠTrade":10726,"Ġspir":10727,"ĠGermans":10728,"ursday":10729,"Ġsynthesis":10730,"Ġcoral":10731,"uclear":10732,"type":10733,"Ġcompletion":10734,"ĠAfghan":10735,"Ġmi":10736,"ĠStudent":10737,"Ġtoys":10738,"ĠMarsh":10739,"Ġwed":10740,"azz":10741,"Ġdemonstrates":10742,"Ġleak":10743,"Ġexecution":10744,"front":10745,"Ġenlar":10746,"onics":10747,"Ġsle":10748,"nesday":10749,"Ġexpenses":10750,"itle":10751,"Ġenabled":10752,"Ġwages":10753,"ĠIntroduction":10754,"Ġoccupation":10755,"Ġpushed":10756,"Ġintegral":10757,"Ġsolely":10758,"quarters":10759,"Ġyes":10760,"kal":10761,"uesday":10762,"Ġdistribut":10763,"Ġpubl":10764,"Ġgolden":10765,"nings":10766,"lings":10767,"Ġrejected":10768,"ĠFollowing":10769,"Ġalgae":10770,"ĠNa":10771,"Ġmonument":10772,"ĠMuch":10773,"Ġmeter":10774,"ĠShakespeare":10775,"ja":10776,"Ġgathering":10777,"Ġfertility":10778,"Ġsurprised":10779,"ogram":10780,"igm":10781,"Ġfounder":10782,"ĠEconom":10783,"nedy":10784,"Ġhill":10785,"only":10786,"Ġride":10787,"yan":10788,"dis":10789,"Ġdeadly":10790,"ĠScientists":10791,"fold":10792,"Ġpriest":10793,"egu":10794,"ĠCenters":10795,"ĠFrancis":10796,"ĠFull":10797,"Ġcontroversial":10798,"insula":10799,"Ġconstitutional":10800,"Ġequations":10801,"arer":10802,"ĠHop":10803,"ĠTeaching":10804,"oved":10805,"verages":10806,"Water":10807,"Ġtraditionally":10808,"Ġtape":10809,"ĠBh":10810,"Dep":10811,"ercise":10812,"Ġthorough":10813,"aying":10814,"Ġdefines":10815,"Ġcorrelation":10816,"ĠMcC":10817,"Ġmagnesium":10818,"ĠDid":10819,"ronaut":10820,"Ġtiming":10821,"emet":10822,"ĠNation":10823,"burgh":10824,"Ġconfiguration":10825,"Ġthickness":10826,"teenth":10827,"ERS":10828,"Ġlift":10829,"Ġemployers":10830,"Gu":10831,"anium":10832,"ĠScholar":10833,"Ġgains":10834,"ĠIntellig":10835,"Ġencomp":10836,"Ġconfront":10837,"Ġhazardous":10838,"CN":10839,"Ġacceptance":10840,"spring":10841,"aft":10842,"Ġinequality":10843,"Ġbuck":10844,"Ġkeys":10845,"doors":10846,"Ġorganisations":10847,"ĠInterest":10848,"Ġbin":10849,"ĠClean":10850,"Ġinflammatory":10851,"Christ":10852,"yard":10853,"owners":10854,"Ġobviously":10855,"Ġrend":10856,"Ġtied":10857,"Ġinvestors":10858,"Have":10859,"Ġcope":10860,"ĠHot":10861,"Ġorganisation":10862,"ulsion":10863,"ceeds":10864,"Ġcerv":10865,"Ġsteady":10866,"ĠDeath":10867,"omon":10868,"ĠLewis":10869,"Ġepidemic":10870,"iking":10871,"ĠSamuel":10872,"Ġfilters":10873,"reement":10874,"Ġhip":10875,"Ġfrog":10876,"dated":10877,"TA":10878,"Ġpor":10879,"Ġassociations":10880,"Ġsustained":10881,"onomous":10882,"asal":10883,"Ġdangers":10884,"Ġwavelength":10885,"Ġbladder":10886,"Ġpathways":10887,"Ġmercury":10888,"ammad":10889,"Ġoccurrence":10890,"Ġinstant":10891,"ĠThink":10892,"Ġrelatives":10893,"Ġsearching":10894,"Ġhorn":10895,"Ġnort":10896,"Ġbrid":10897,"Ġcriticism":10898,"nected":10899,"ĠHan":10900,"82":10901,"ĠJefferson":10902,"ĠMarc":10903,"Ġattain":10904,"Ġgenus":10905,"Ġuncertainty":10906,"Ġmart":10907,"ĠGre":10908,"Ġtorn":10909,"ĠProtest":10910,"Ġobser":10911,"Ġinclusion":10912,"Ġillustrated":10913,"agger":10914,"Ġinfin":10915,"icides":10916,"Ġdistinguished":10917,"Ġinspect":10918,"Ġfeatured":10919,"Ġmistake":10920,"ĠAh":10921,"Ġimperial":10922,"Ġ800":10923,"Ġopens":10924,"Ġdoctrine":10925,"ĠCN":10926,"ĠReal":10927,"Ġextraordinary":10928,"400":10929,"Ġnamely":10930,"ĠHung":10931,"Ġhunger":10932,"ĠAltern":10933,"coin":10934,"Ġvacuum":10935,"actic":10936,"storm":10937,"Ġmystery":10938,"Ġanten":10939,"Ġemission":10940,"Ġimplies":10941,"Ġfeather":10942,"ĠDaily":10943,"school":10944,"iversary":10945,"Ġguns":10946,"Ġelectronics":10947,"Ġartif":10948,"HT":10949,"Ġmultip":10950,"Ġbits":10951,"acon":10952,"ĠCore":10953,"ĠIndividual":10954,"Ġ1985":10955,"Ġ46":10956,"Ant":10957,"Ġrecommends":10958,"2004":10959,"ĠCond":10960,"ĠEmperor":10961,"Ġspelling":10962,"Ġpoorly":10963,"Ġasks":10964,"rels":10965,"Ġoutline":10966,"ĠMental":10967,"Ġsubstr":10968,"xic":10969,"ĠTro":10970,"ĠNazi":10971,"Ġpublications":10972,"Ġsimulation":10973,"Ġmasses":10974,"Ġaccompany":10975,"uble":10976,"Ġmeteor":10977,"ĠBalt":10978,"agle":10979,"ĠNG":10980,"Ġextrem":10981,"ĠNevertheless":10982,"riction":10983,"nals":10984,"arding":10985,"Ġshouldn":10986,"Ġought":10987,"Ġmethane":10988,"ĠChall":10989,"rophic":10990,"ĠMand":10991,"owa":10992,"Ġlabels":10993,"ĠPath":10994,"Ġlocally":10995,"Ġfrozen":10996,"ĠRomans":10997,"Ġ^":10998,"urated":10999,"Ġpermitted":11000,"Ġheter":11001,"Ġcoordination":11002,"Ġgovernor":11003,"Ġvomiting":11004,"ĠWisconsin":11005,"Ġtexture":11006,"LS":11007,"Ġacknowledge":11008,"ez":11009,"Ġfate":11010,"ancial":11011,"Ġyields":11012,"essional":11013,"eav":11014,"inition":11015,"Ġcalculations":11016,"RS":11017,"auc":11018,"ĠLeague":11019,"Ġrhythm":11020,"Ġinadequ":11021,"neg":11022,"range":11023,"Both":11024,"Ġcompat":11025,"Ġfirms":11026,"Ġpayments":11027,"ĠJun":11028,"Ġtubes":11029,"Ġparliament":11030,"ĠIndonesia":11031,"Ġhistorian":11032,"ĠIndex":11033,"ĠUlt":11034,"ĠSource":11035,"sur":11036,"Ġemerge":11037,"flies":11038,"Ġcounterpart":11039,"Ġcategor":11040,"Ġvector":11041,"Ġwritings":11042,"ĠPsychology":11043,"phal":11044,"olit":11045,"2015":11046,"Ġweapon":11047,"iors":11048,"Ġoriginated":11049,"Ġatomic":11050,"ĠKansas":11051,"Ġscal":11052,"Ġincredible":11053,"Ġmes":11054,"ĠWW":11055,"Ġnurse":11056,"Ġstorms":11057,"ĠCarl":11058,"Ġclassrooms":11059,"Ġworksheets":11060,"General":11061,"ĠPython":11062,"ĠPhysics":11063,"Ġcolumns":11064,"Ag":11065,"Ġreproduction":11066,"ĠSher":11067,"Ġtalks":11068,"ĠCaribbean":11069,"osity":11070,"Ġresilience":11071,"Ġinvestigated":11072,"ĠFa":11073,"ĠScottish":11074,"idae":11075,"ĠQuality":11076,"ĠSweden":11077,"Ġimmigration":11078,"imals":11079,"Ġrocket":11080,"Ġinfluential":11081,"Ġseasons":11082,"Ġvolumes":11083,"inian":11084,"icting":11085,"ĠHur":11086,"emetery":11087,"fare":11088,"inea":11089,"Ġsucceeded":11090,"Ġdefeat":11091,"omatic":11092,"ECT":11093,"Ġreserves":11094,"entieth":11095,"ĠHon":11096,"Ġsuspected":11097,"Ġfacial":11098,"ergarten":11099,"ĠHom":11100,"ĠStatistics":11101,"Ġcensus":11102,"Ġrevolutionary":11103,"Ġdominated":11104,"asures":11105,"role":11106,"ĠAk":11107,"gered":11108,"Ġreplic":11109,"Ġconversations":11110,"ĠWHO":11111,"Ġpries":11112,"Ġswallow":11113,"ĠLinux":11114,"atre":11115,"formance":11116,"Find":11117,"Ġtermin":11118,"RL":11119,"EST":11120,"ĠAvailable":11121,"Ġprevalent":11122,"Ġcombust":11123,"enders":11124,"Ġdollar":11125,"Ġadvertising":11126,"Ġaccordance":11127,"ĠHu":11128,"hard":11129,"Ġstimulate":11130,"Ġpatri":11131,"Ġrealistic":11132,"Ġdeleg":11133,"ĠOs":11134,"ĠMonth":11135,"Ġsubtle":11136,"ognition":11137,"Ġcatal":11138,"Ġcompassion":11139,"ĠNumber":11140,"swered":11141,"Ġgenetics":11142,"feeding":11143,"seud":11144,"ĠMP":11145,"Ġrear":11146,".-":11147,"Ġgenuine":11148,"Ġmoments":11149,"ĠMarx":11150,"ican":11151,"Ġhack":11152,"ĠMes":11153,"ĠCit":11154,"ocent":11155,"Ġantibiotic":11156,"Ġseverely":11157,"Ġdisappear":11158,"Spec":11159,"ĠGrade":11160,"dimensional":11161,"Ġincredibly":11162,"Ġchron":11163,"Ġdisposal":11164,"Ġeconomies":11165,"ĠAz":11166,"Ġpathogens":11167,"Ġinsu":11168,"ivals":11169,"ĠCape":11170,"Ġloans":11171,"Ġhang":11172,"Ġtracks":11173,"Ġnecessity":11174,"Ġdiagnose":11175,"yt":11176,"rared":11177,"Ġmarkers":11178,"Ġassumptions":11179,"first":11180,"Ġarrangement":11181,"Ġcounties":11182,"Ġspecimens":11183,"Ġcataly":11184,"Ġracism":11185,"Ġfilling":11186,"ĠDu":11187,"Ġgau":11188,"Ġdiscussing":11189,"Ġcrust":11190,"bet":11191,"Ġirre":11192,"orient":11193,"Ġpotatoes":11194,"ĠVolume":11195,"pson":11196,"heastern":11197,"Ġexpend":11198,"ĠWars":11199,"ĠTree":11200,"ĠCold":11201,"Ġjaw":11202,"arts":11203,"GS":11204,"ĠAnne":11205,"rying":11206,"ĠReserve":11207,"Ġenemies":11208,"Ġmatrix":11209,"rise":11210,"Ġrotation":11211,"Ġdehyd":11212,"vals":11213,"ĠBio":11214,"stration":11215,"Ġprotects":11216,"Ġ47":11217,"govern":11218,"ternoon":11219,"Ġgland":11220,"hops":11221,"arter":11222,"Ġic":11223,"Ġexecuted":11224,"Ġlunch":11225,"ĠAnimal":11226,"Ġcircles":11227,"igma":11228,"conf":11229,"Ġyard":11230,"ĠKennedy":11231,"ussion":11232,"Ġaluminum":11233,"Ġterritories":11234,"Ġlimiting":11235,"ttes":11236,"Ġliberty":11237,"onent":11238,"onymous":11239,"Based":11240,"Ġ1984":11241,"Ã§":11242,"gress":11243,"ikes":11244,"Ġdeterior":11245,"Ġbugs":11246,"Ġcoins":11247,"PT":11248,"Ġmetap":11249,"ĠEvent":11250,"ĠCase":11251,"Ġprotocols":11252,"ĠFront":11253,"grim":11254,"Ġstiff":11255,"ĠTib":11256,"Ġattracted":11257,"Ġcommands":11258,"leton":11259,"Ġdeclined":11260,"RNA":11261,"Ġpap":11262,"Ġpride":11263,"Ġruling":11264,"ĠSymptoms":11265,"ountered":11266,"human":11267,"Ġchains":11268,"Ġillustrate":11269,"ĠSleep":11270,"ĠFlow":11271,"orney":11272,"Ġnick":11273,"Ġdetermination":11274,"Ġcoinc":11275,"Hz":11276,"Ġbulk":11277,"Ġvoting":11278,"Ġdiscoveries":11279,"hedral":11280,"Ġcareg":11281,"Ġsituated":11282,"Ġpoliticians":11283,"Ġmagnet":11284,"UM":11285,"wall":11286,"ĠGiven":11287,"Ġconsiderations":11288,"ĠBuddha":11289,"ĠVictoria":11290,"ĠBehavior":11291,"Ġsoap":11292,"Ġconsensus":11293,"Though":11294,"ĠPA":11295,"Ġtired":11296,"Ġenact":11297,"Ġexpense":11298,"ĠPR":11299,"Ġignore":11300,"Ġstops":11301,"anth":11302,"ĠExec":11303,"ĠÂ°":11304,"Ġcaffe":11305,"Ġtransf":11306,"ĠDougl":11307,"Ġmultipl":11308,"Ġsperm":11309,"ĠDuke":11310,"Ġstressed":11311,"ĠMathemat":11312,"Ġtang":11313,"Ġconsiderably":11314,"Ġbrill":11315,"Ġethics":11316,"rac":11317,"Ġreceptors":11318,"thening":11319,"Ġmail":11320,"ĠOil":11321,"Ġ1800":11322,"Ġapplicable":11323,"Ġsupplied":11324,"Ġrestored":11325,"lessly":11326,"oil":11327,"ĠMos":11328,"Ġhills":11329,"Ġexplaining":11330,"Ġbelonging":11331,"Ġdispar":11332,"Ġskull":11333,"Ġskilled":11334,"Ġexpedition":11335,"Ġphrases":11336,"Ġapple":11337,"ĠTransport":11338,"ĠTalk":11339,"Ġgums":11340,"ĠZh":11341,"Ġhepat":11342,"Ġexclusively":11343,"rell":11344,"Ġprecious":11345,"aturday":11346,"Ġrecycled":11347,"Well":11348,"Ġpalm":11349,"Ġaids":11350,"World":11351,"Ġgastro":11352,"Ġboards":11353,"Ġincorrect":11354,"Ġunity":11355,"Ġmeets":11356,"inflammatory":11357,"Ġencountered":11358,"Ġperipher":11359,"hester":11360,"Ġinvited":11361,"Ġrelieve":11362,"Ġoverweight":11363,"alo":11364,"reating":11365,"Ġcurious":11366,"!)":11367,"Ġcollaborative":11368,"Ġdepartments":11369,"ĠPap":11370,"Ġanch":11371,"Ġchapters":11372,"velt":11373,"Ġinstitutional":11374,"eared":11375,"Ġmarginal":11376,"ko":11377,"Ġextraction":11378,"asa":11379,"2016":11380,"Î±":11381,"Ġheadaches":11382,"supp":11383,"ĠUnit":11384,"Ġpresum":11385,"Ġdatas":11386,"othy":11387,"pm":11388,"uty":11389,"Ġeducate":11390,"Ġdamaging":11391,"ĠObject":11392,"Ġdesigners":11393,"ĠYears":11394,"Ġlying":11395,"ĠPrime":11396,"Ġlarvae":11397,"Ġthinks":11398,"uns":11399,"ĠLiving":11400,"Ġcardiac":11401,"His":11402,"ĠEle":11403,"Ġcolleges":11404,"erness":11405,"Ġorn":11406,"ĠEnter":11407,"Ġbowel":11408,"Prof":11409,"Ġgenetically":11410,"ĠâĢĿ":11411,"Ġreferring":11412,"Ġpipes":11413,"Ġbands":11414,"Ġsurveillance":11415,"ĠRose":11416,"olly":11417,"Ġabroad":11418,"iki":11419,"aus":11420,"Ġshield":11421,"Ġprolonged":11422,"ĠWatch":11423,"sl":11424,"emed":11425,"ĠSpecies":11426,"Ġinver":11427,"Ġdinner":11428,"Ġcrash":11429,"Ġvon":11430,"osphere":11431,"Ġherbs":11432,"Ġseeks":11433,"ĠIron":11434,"Ġ1979":11435,"Ġviable":11436,"ĠHay":11437,"Ġpreschool":11438,"ĠBit":11439,"uster":11440,"Ġpupp":11441,"Ġcondem":11442,"Ġanswered":11443,"Ġshopping":11444,"Ġsenses":11445,"Ġcooked":11446,"ĠEnc":11447,"Ġimpression":11448,"aki":11449,"Ġnewspapers":11450,"Ġprecipitation":11451,"Ġchip":11452,"Ġphases":11453,"ĠSac":11454,"Ġgeographic":11455,"Ġspell":11456,"ocaust":11457,"non":11458,"ifferent":11459,"PDF":11460,"Â©":11461,"Ġwhilst":11462,"Ġmetres":11463,"Ġ49":11464,"Ġprogrammes":11465,"Ġdece":11466,"ĠGrant":11467,"rock":11468,"anna":11469,"ĠYellow":11470,"ĠNi":11471,"ĠFord":11472,"Ġpredominant":11473,"natural":11474,"Ġanalog":11475,"obs":11476,"ĠPoll":11477,"ĠHas":11478,"Ġreserve":11479,"Ġorganize":11480,"Ġanalyzing":11481,"Ġdigit":11482,"Ġcasual":11483,"Ġtelephone":11484,"icked":11485,"Ġadmitted":11486,"ĠFranklin":11487,"ĠCF":11488,"Ġcostly":11489,"some":11490,"Ġdismiss":11491,"ĠEssay":11492,"EW":11493,"osevelt":11494,"Ġdisasters":11495,"ART":11496,"Take":11497,"stead":11498,"Ġgaining":11499,"eous":11500,"Ġepidem":11501,".]":11502,"Ġfestival":11503,"yo":11504,"Ġdetermines":11505,"hr":11506,"igration":11507,"Ġmim":11508,"Ġfurniture":11509,"Ġglobally":11510,"ausea":11511,"Ġsatellites":11512,"ĠRepublican":11513,"Ġfeas":11514,"ĠTaylor":11515,"Ġwra":11516,"2003":11517,"Ġcatast":11518,"don":11519,"arest":11520,"Ġarchitectural":11521,"Ġfifty":11522,"Ġdishes":11523,"Ġunnecessary":11524,"Ä«":11525,"Ġunemployment":11526,"Ġappetite":11527,"hour":11528,"ĠWrite":11529,"Ġsyll":11530,"Ġportions":11531,"iolet":11532,"uming":11533,"Ġspecialists":11534,"Ġyeast":11535,"iating":11536,"Ġric":11537,"Ġexamining":11538,"ĠJane":11539,"Ġconservative":11540,"tics":11541,"Ġassumption":11542,"Ġextends":11543,"isible":11544,"Ġsubstitute":11545,"Ġaquatic":11546,"Ġfrequencies":11547,"bid":11548,"rets":11549,"Ġrepeatedly":11550,"iro":11551,"ĠLeon":11552,"good":11553,"Ġdecomp":11554,"ĠSix":11555,"ructive":11556,"iplinary":11557,"onge":11558,"oub":11559,"Ġscenes":11560,"Ġmud":11561,"makers":11562,"Ġdegradation":11563,"ĠRab":11564,"Ġdecent":11565,"Ġkings":11566,"Ġdisput":11567,"Ġentity":11568,"Ġ99":11569,"ĠTy":11570,"Ġexplos":11571,"ĠChemical":11572,"ĠDiabetes":11573,"Ġpollutants":11574,"Ġpicked":11575,"father":11576,"Ġignored":11577,"Ġoutdoors":11578,"ĠSa":11579,"Ġpoems":11580,"rass":11581,"ĠKim":11582,"ĠBor":11583,"Ġflesh":11584,"Make":11585,"Ġquad":11586,"restrial":11587,"Ġaccessed":11588,"Ġtimber":11589,"ĠTherapy":11590,"Ġnineteenth":11591,"pur":11592,"Ġattempting":11593,"Ġstrand":11594,"ĠSpe":11595,"upiter":11596,"Ġprophe":11597,"El":11598,"ĠOpt":11599,"Ġgroundwater":11600,"Ġmounted":11601,"Ġbeds":11602,"Ġcompact":11603,"ĠBuddhist":11604,"Ġmanufactured":11605,"Ġshipping":11606,"Ġdevastating":11607,"ĠAmendment":11608,"Ġtech":11609,"Ġrespective":11610,"Ġbehalf":11611,"Ġcha":11612,"Ġdocumentation":11613,"ĠFram":11614,"Ġstaying":11615,"Av":11616,"Ġpowered":11617,"Ġsau":11618,"Ġimmense":11619,"Ġmachinery":11620,"Ġviewing":11621,"ochond":11622,"Ġsket":11623,"Ġpassive":11624,"Ġlith":11625,"EV":11626,"ĠLower":11627,"Ġquote":11628,"Ġ`":11629,",'":11630,"Scientists":11631,"Ġsorts":11632,"ĠLt":11633,"Ġmakers":11634,"Ġhearts":11635,"Ġnurses":11636,"ĠEthiop":11637,"Ob":11638,"agine":11639,"Ġrecovered":11640,"orie":11641,"Ġguides":11642,"Ġdeals":11643,"Ġsnake":11644,"ĠCensus":11645,"ĠOR":11646,"Ġingredient":11647,"Ġelectrom":11648,"py":11649,"Bel":11650,"ordan":11651,"ĠBridge":11652,"ĠDepression":11653,"Ġ@":11654,"ector":11655,"ĠLu":11656,"Ġsurre":11657,"Ġmotivated":11658,"Ġtunnel":11659,"Ġfolk":11660,"essee":11661,"Ġshadow":11662,"Ġblacks":11663,"Ġpathway":11664,"Ġconclude":11665,"Ġgraphic":11666,"Ġdign":11667,"ĠÂ·":11668,"Ġindicator":11669,"Ã³n":11670,"Ġcampaigns":11671,"Ġmainstream":11672,"ĠNS":11673,"ĠBelg":11674,"iotics":11675,"risk":11676,"Ġrings":11677,"Ġwarmer":11678,"Ġarbit":11679,"ĠSens":11680,"Ġpharmac":11681,"Ġmenu":11682,"Ġoverse":11683,"ĠCra":11684,"Ġoperators":11685,"Ġvow":11686,"Ġyoga":11687,"imeter":11688,"Ġnavigate":11689,"Ġparticipated":11690,"Ġstuck":11691,"ĠTen":11692,"Ġautomatic":11693,"Ġfulfill":11694,"Ġabdominal":11695,"ĠMountains":11696,"Ġtelescope":11697,"ĠMovement":11698,"Ġstack":11699,"Ġphysiological":11700,"ococc":11701,"Ġsatisfaction":11702,"ĠContact":11703,"ĠPeriod":11704,"ĠRog":11705,"oxide":11706,"ĠPhilippines":11707,"irs":11708,"Ġtraveled":11709,"ĠGh":11710,"Ġpec":11711,"Ġgalaxy":11712,"ĠElectric":11713,"Ġdigestion":11714,"Ġpaths":11715,"Ġrises":11716,"Ġunto":11717,"ĠArabic":11718,"Ġbelt":11719,"bral":11720,"Ġmutual":11721,"Inc":11722,"Ġmeanings":11723,"ĠRub":11724,"ĠGir":11725,"imedia":11726,"osaurs":11727,"Ġprostate":11728,"bestos":11729,"Ġdistress":11730,"monary":11731,"ĠStone":11732,"ltry":11733,"osynt":11734,"isphere":11735,"Ġwealthy":11736,"ĠEs":11737,"asting":11738,"Ġimbal":11739,"ĠLouisiana":11740,"ĠLind":11741,"exts":11742,"Ġcomparable":11743,"Ġafternoon":11744,"bro":11745,"Ġ52":11746,"Ġstrengths":11747,"Ġinsulation":11748,"Ġpractitioners":11749,"Ġvoices":11750,"Ġpreferences":11751,"ĠLarge":11752,"ishers":11753,"Ġpollen":11754,"Ġlig":11755,"Ġalien":11756,"ĠUrban":11757,"lyn":11758,"educ":11759,"Ġphilosophical":11760,"Ġendeav":11761,"perial":11762,"Ġdisin":11763,"ĠJean":11764,"Ġgalaxies":11765,"Ġguided":11766,"ogene":11767,"Ġbor":11768,"iley":11769,"Ġinterviews":11770,"ochemical":11771,"Ġcher":11772,"ĠSyria":11773,"keys":11774,"Next":11775,"Ġ1982":11776,"Ġinherited":11777,"Ġneedle":11778,"Ġflowing":11779,"onto":11780,"ĠBow":11781,"Ġneighbors":11782,"ĠRay":11783,"ulative":11784,"ĠWorkshe":11785,"cm":11786,"illy":11787,"Ġfarmer":11788,"Ġshortly":11789,"Ġplaque":11790,"Ġatom":11791,"arma":11792,"rup":11793,"CM":11794,"Ġbeta":11795,"ĠPolish":11796,"Ġupdates":11797,"Ġsinging":11798,"ĠTrump":11799,"Ġfluctu":11800,"activity":11801,"ĠSep":11802,"Ġefficacy":11803,"Ġgrave":11804,"Ġcompensation":11805,"lastname":11806,"writing":11807,"ogl":11808,"screen":11809,"Ġwinning":11810,"Ġdimension":11811,"Ġpulled":11812,"opathy":11813,"Ġflies":11814,"Ġblockchain":11815,"ĠGreg":11816,"Ġty":11817,"ĠMuh":11818,"Ġentities":11819,"ilty":11820,"Ġangry":11821,"ĠIndustrial":11822,"Ġenthusi":11823,"eland":11824,"Supp":11825,"Jan":11826,"lem":11827,"Ġchecking":11828,"âĦ":11829,"ĠEM":11830,"Ġgrants":11831,"Ġbold":11832,"Ġfootball":11833,"Ġadul":11834,"God":11835,"Ġceremony":11836,"Ġpoisoning":11837,"ĠWin":11838,"shore":11839,"ĠGuid":11840,"Ġnode":11841,"Ġmethodology":11842,"ĠArthur":11843,"ĠBody":11844,"uilt":11845,"acular":11846,"Ġhind":11847,"Ġcoin":11848,"fol":11849,"arse":11850,"Ġ51":11851,"Ġcarcin":11852,"ĠTax":11853,"ĠRoosevelt":11854,"ĠHispan":11855,"opt":11856,"Ġcheaper":11857,"Ġcrossing":11858,"ĠRus":11859,"ĠCut":11860,"Ġstructured":11861,"ĠOpp":11862,"ĠSoft":11863,"Ġclusters":11864,"Pres":11865,"abetic":11866,"ietal":11867,"Ġenterprise":11868,"Ġ2023":11869,"instein":11870,"white":11871,"uese":11872,"Ġaffil":11873,"Ġpromoted":11874,"Ġconjunction":11875,"ĠUtah":11876,"Ġbeer":11877,"ĠPear":11878,"ĠNig":11879,"ĠTri":11880,"Ġrescue":11881,"abama":11882,"Ġinduced":11883,"Those":11884,"ĠParents":11885,"ibration":11886,"warf":11887,"link":11888,"Aug":11889,"Ġdatabases":11890,"ĠArk":11891,"ĠBad":11892,"pective":11893,"ĠMonitor":11894,"Ġuter":11895,"sun":11896,"vance":11897,"ĠRepresent":11898,"Ġpushing":11899,"Ġinterpreted":11900,"Ġobsc":11901,"Ġprofits":11902,"Ġstatic":11903,"Ġtransparent":11904,"Ġassignments":11905,"ĠMaking":11906,"Ġbattles":11907,"Ġdescriptions":11908,"Ġfails":11909,"Ġreligions":11910,"FA":11911,"Ġoxide":11912,"Ġslide":11913,"viously":11914,"Ġadvised":11915,"Ġanniversary":11916,"away":11917,"Public":11918,"Ġkin":11919,"rage":11920,"Ġpracticing":11921,"Ġpersonally":11922,"Ġtremendous":11923,"ilton":11924,"ushes":11925,"Ġchecked":11926,"ĠBarb":11927,"Ġcavity":11928,"Ġfleet":11929,"ele":11930,"osex":11931,"Ġepisode":11932,"Ġabsent":11933,"Ġbasics":11934,"apore":11935,"letter":11936,"Ġcolours":11937,"ĠSM":11938,"gon":11939,"600":11940,"Ġreliability":11941,"ĠSearch":11942,"Ġmovies":11943,"Ġsmallest":11944,"Ġresur":11945,"Ġhistorically":11946,"Ġveterin":11947,"Ġcontexts":11948,"Ġwhales":11949,"aug":11950,"inton":11951,"Ġverbal":11952,"ĠAccount":11953,"Ġcannab":11954,"ĠMit":11955,"Ġphotography":11956,"Ġvapor":11957,"etry":11958,"ewater":11959,"Ġbom":11960,"etheless":11961,"ĠMoh":11962,"ĠMarg":11963,"Ġarchaeological":11964,"Ġservers":11965,"vasive":11966,"Ġpriorit":11967,"weet":11968,"ographer":11969,"ĠKenya":11970,"Ġdirt":11971,"Ġdrawings":11972,"Ġ1983":11973,"Ġdiscusses":11974,"Ġinitiated":11975,"Ġcer":11976,"Ġacquisition":11977,"Ġangles":11978,"Ġenters":11979,"Ġodd":11980,"Pat":11981,"laration":11982,"Ġpatch":11983,"fficiency":11984,"Ġvolcanic":11985,"Ġtempt":11986,"Ġquantitative":11987,"TER":11988,"appy":11989,"Ġpitch":11990,"elson":11991,"Ġintegrate":11992,"Ġbiomass":11993,"forward":11994,"Disc":11995,"Ġfraud":11996,"Ġ72":11997,"kh":11998,"ĠKnowledge":11999,"Ġaspir":12000,"Ġcaffeine":12001,"ĠVers":12002,"Ġasset":12003,"Ġmagic":12004,"ĠDefense":12005,"stud":12006,"Ġalphabet":12007,"ESS":12008,"Ġbreathe":12009,"access":12010,"Second":12011,"will":12012,"ÑĤ":12013,"Ġcontracts":12014,"Ġalb":12015,"uct":12016,"Ġresidence":12017,"post":12018,"Ġpossession":12019,"Ġreplacing":12020,"Ġpropos":12021,"ĠLG":12022,"Ġmarch":12023,"ĠHawaii":12024,"Ġchips":12025,"otyp":12026,"forming":12027,"urred":12028,"Ġregulated":12029,"Intern":12030,"Ġque":12031,"Ġgovernance":12032,"Ġspeaks":12033,"ĠIniti":12034,"swer":12035,"giving":12036,"ĠMission":12037,"Ġbeef":12038,"inced":12039,"Ġmul":12040,"Ġbelongs":12041,"estinal":12042,"Ġsafegu":12043,"held":12044,"ĠPit":12045,"weed":12046,"ationally":12047,"Ġannounce":12048,"ĠEducational":12049,"Ġrefriger":12050,"Ġcircuits":12051,"Ġdreams":12052,"ĠNap":12053,"edge":12054,"ĠFive":12055,"backs":12056,"two":12057,"ĠArist":12058,"Ġdual":12059,"spe":12060,"Ġintroducing":12061,"!\"":12062,"itored":12063,"utri":12064,"Ġpurple":12065,"Ġastronaut":12066,"ĠCreate":12067,"ĠRand":12068,"Ġpersec":12069,"Ġgifts":12070,"Ġvocal":12071,"Ġresponded":12072,"ĠMiller":12073,"aund":12074,"arched":12075,"Ġlicensed":12076,"ĠConfederate":12077,"orship":12078,"ĠPrize":12079,"keley":12080,"angers":12081,"Ġovert":12082,"ĠTibet":12083,"igs":12084,"Ġactors":12085,"Ġheated":12086,"ĠPay":12087,"Ġchat":12088,"po":12089,"rade":12090,"rades":12091,"izational":12092,"Ġequity":12093,"erves":12094,"abs":12095,"Ġpurchasing":12096,"ilateral":12097,"alling":12098,"Em":12099,"ĠMu":12100,"Ġignor":12101,"Ġsubstantially":12102,"Ġ54":12103,"Oct":12104,"Ġrealm":12105,"ĠEvolution":12106,"Ġraises":12107,"Ġpredictions":12108,"Ġgross":12109,"ĠSeries":12110,"Ġhighlighted":12111,"sets":12112,"Ġfee":12113,"graduate":12114,"Ġrou":12115,"Ġcoding":12116,"ĠTennessee":12117,"roach":12118,"ĠDiego":12119,"Ġbay":12120,"ĠCaptain":12121,"Ġcounting":12122,"lation":12123,"ĠTreaty":12124,"ĠSite":12125,"agus":12126,"Ġren":12127,"Ġfears":12128,"Ġrepublic":12129,"roleum":12130,"ĠKat":12131,"ĠâĨĳ":12132,"iencies":12133,"Ġmutation":12134,"ĠChap":12135,"Ġdictionary":12136,"appropriate":12137,"Ġdenied":12138,"Ġemergence":12139,"Ġbasket":12140,"Ġdefeated":12141,"entially":12142,"Ġairport":12143,"ĠCorporation":12144,"Ġintu":12145,"Ġempir":12146,"ĠProphet":12147,"Ġgeographical":12148,"Ð½":12149,"Ġretire":12150,"ibli":12151,"Ġbrick":12152,"Ġchim":12153,"Ġwax":12154,"asis":12155,"comfort":12156,"Ġdarkness":12157,"Ġpressures":12158,"ĠGer":12159,"Ġinterrupt":12160,"Ġlunar":12161,"Ġ1975":12162,"when":12163,"Ġneighbour":12164,"2002":12165,"ĠCham":12166,"ĠAges":12167,"ĠFreder":12168,"Ġcarp":12169,"mouth":12170,"Ġtear":12171,"organisms":12172,"ĠFOR":12173,"Ġautomated":12174,"Ġenvironmentally":12175,"ĠArchitect":12176,"Ġantioxidants":12177,"Ġdeple":12178,"Ġvolunteer":12179,"Ġconsp":12180,"Ġdefining":12181,"Ġfungi":12182,"hend":12183,"Ġincidents":12184,"Ġimposed":12185,"Ġreleases":12186,"Ġforty":12187,"ĠRod":12188,"Did":12189,"Ġcorruption":12190,"2001":12191,"ruce":12192,"rology":12193,"Ġsacrific":12194,"VD":12195,"Ġabd":12196,"Ġsore":12197,"oths":12198,"Ġmenstru":12199,"Ġbuilds":12200,"ĠJupiter":12201,"Ġcaution":12202,"PM":12203,"Ġions":12204,"Char":12205,"ĠTai":12206,"ĠPMID":12207,"Ġaccused":12208,"Ġbottles":12209,"rasound":12210,"iciency":12211,"ĠCarbon":12212,"lades":12213,"Ġboats":12214,"ĠPas":12215,"Ġcombining":12216,"iser":12217,"Ġsteep":12218,"Ġaccumulation":12219,"Ġtriggers":12220,"Ġblame":12221,"Ġreads":12222,"otechnology":12223,"Ġfollowers":12224,"Ġbreakfast":12225,"Ġ1981":12226,"ĠSustainable":12227,"ĠComb":12228,"Ġlapt":12229,"ikh":12230,"ÑĢ":12231,"Ġbars":12232,"Ġthrown":12233,"Ġadmit":12234,"ĠObserv":12235,"orks":12236,"Ġindication":12237,"AV":12238,"olescent":12239,"Ġconsisted":12240,"ĠFlu":12241,"Ġcounts":12242,"Ñģ":12243,"Ġprojected":12244,"oen":12245,"Ġselecting":12246,"Ġcertified":12247,"Ġunders":12248,"ĠDur":12249,"Ġtalked":12250,"Ġarrested":12251,"Ġgrey":12252,"Ġpharmaceutical":12253,"Ġscheduled":12254,"Ġterminal":12255,"Ġkidneys":12256,"arb":12257,"ĠAlbert":12258,"Ġpeaceful":12259,"ĠConc":12260,"Ġpublicly":12261,"Ġnavigation":12262,"ĠØ":12263,"Ġinclusive":12264,"ĠBan":12265,"ĠDeep":12266,"ĠRaj":12267,"Ġhypertension":12268,"ĠCommunication":12269,"Ġconvinced":12270,"Ġhosts":12271,"Current":12272,"Ġobese":12273,"Ġpracticed":12274,"Ġrows":12275,"Ġpremature":12276,"ĠHealthy":12277,"ĠFisher":12278,"uana":12279,"icul":12280,"ĠEdition":12281,"eld":12282,"Ġconstraints":12283,"ultural":12284,"Ġfootprint":12285,"inence":12286,"urally":12287,"TC":12288,"Ġcomprehension":12289,"Ġcommemor":12290,"Ġ56":12291,"ĠPresent":12292,"heres":12293,"Ġlocate":12294,"Ġcastle":12295,"odge":12296,"ĠIntelligence":12297,"Data":12298,"Ġsymmet":12299,"Ġmosquito":12300,"Ġreceptor":12301,"ĠNort":12302,"five":12303,"Ġtender":12304,"Ġrelates":12305,"Ġomega":12306,"arms":12307,"ĠClark":12308,"Ġpigs":12309,"Ġma":12310,"Ġprosec":12311,"Ġfled":12312,"Ġpromised":12313,"Ġarteries":12314,"ĠPatients":12315,"ĠBapt":12316,"Orig":12317,"ĠDub":12318,"Ġlandf":12319,"Ġagenda":12320,"ĠIndependence":12321,"ĠTeacher":12322,"Ġglands":12323,"Ġbutt":12324,"Ġlean":12325,"Ġseemingly":12326,"plus":12327,"Ġmonitored":12328,"ĠRequ":12329,"oT":12330,"ĠKong":12331,"Ġmargin":12332,"Ġcorporations":12333,"EX":12334,"ĠAdvanced":12335,"Ġclosest":12336,"iens":12337,"olecular":12338,"arency":12339,"Ġsmok":12340,"ĠPersian":12341,"ĠLove":12342,"Ġcustoms":12343,"Ġintervals":12344,"ĠThursday":12345,"Ġtrap":12346,"Ġconceptual":12347,"ĠCultural":12348,"Ġfragments":12349,"ĠRelations":12350,"ĠWednesday":12351,"Ġpassengers":12352,"Ġevac":12353,"acre":12354,"ĠMagn":12355,"ĠKentucky":12356,"enaissance":12357,"induced":12358,"Mus":12359,"Ġnorms":12360,"empl":12361,"Ġepit":12362,"Ġexplores":12363,"Ġfees":12364,"Ġheadache":12365,"Ġmembership":12366,"ĠRout":12367,"Ġvirtue":12368,"ĠGil":12369,"Ġconvention":12370,"amily":12371,"Ġextending":12372,"Ġchallenged":12373,"Ġlact":12374,"ĠShow":12375,"Ġalleged":12376,"ĠHunt":12377,"Ġcompleting":12378,"Ġsuited":12379,"ĠGolden":12380,"annel":12381,"Ġobserving":12382,"Ġ53":12383,"ĠBah":12384,"ĠAlabama":12385,"Ġmush":12386,"Ġmixing":12387,"heel":12388,"ĠVo":12389,"athic":12390,"Ġrequests":12391,"Ġheaded":12392,"âĤ¬":12393,"Ġassessing":12394,"ni":12395,"Ġbases":12396,"AI":12397,"ths":12398,"ĠCook":12399,"cedented":12400,"Ġinadequate":12401,"ĠSD":12402,"Ġthrone":12403,"olas":12404,"ĠHong":12405,"Ġstimulation":12406,"Ġicon":12407,"Ġaffirm":12408,"Ġcombinations":12409,"Ġcaring":12410,"Ġoperator":12411,"Ġfeat":12412,"Ġdecreasing":12413,"ĠAffairs":12414,"iously":12415,"have":12416,"FS":12417,"Ġcod":12418,"Ġtribal":12419,"Ġcyt":12420,"Ġcoronavirus":12421,"ĠSex":12422,"ĠChile":12423,"ĠMong":12424,"ĠTuesday":12425,"fat":12426,"ĠNat":12427,"Ġentertainment":12428,"Mon":12429,"ĠNich":12430,"Thus":12431,"ĠSelect":12432,"Ġcompete":12433,"ĠMarket":12434,"Ġunclear":12435,"Ġpresenting":12436,"Ġpolymer":12437,"gram":12438,"Ġfost":12439,"forestation":12440,"Ġweren":12441,"Ġ1972":12442,"Ġcompress":12443,"Ġgeometry":12444,"Ġconsultation":12445,"Ġgrat":12446,"istence":12447,"Ġworkshops":12448,"ĠTeam":12449,"Ġtackle":12450,"ĠPow":12451,"ĠFreedom":12452,"Ġexplosion":12453,"Image":12454,"ryption":12455,"iasis":12456,"assment":12457,"immune":12458,"Ġcareers":12459,"Ġ1968":12460,"cr":12461,"aments":12462,"Ġglory":12463,"Ġger":12464,"Ġradioactive":12465,"hot":12466,"PP":12467,"Ġinherit":12468,"Ġsphere":12469,"Ġvoters":12470,"âĦ¢":12471,"Ġtraged":12472,"ĠCommand":12473,"jamin":12474,"ĠMaterials":12475,"ĠArgent":12476,"Ġlacking":12477,"Ġdozen":12478,"Key":12479,"Ġpix":12480,"Ġcrowd":12481,"Ġconstitu":12482,"Ġmissed":12483,"ĠÏ":12484,"ĠEval":12485,"Ġartery":12486,"Ġcorros":12487,"atab":12488,"Ġcertification":12489,"ĠBuddhism":12490,"Work":12491,"heat":12492,"Ġconstitute":12493,"Fl":12494,"ĠHolocaust":12495,"ĠPlants":12496,"ĠDor":12497,"ĠLady":12498,"Ġcontra":12499,"Ġfunctionality":12500,"History":12501,"gic":12502,"ĠBoy":12503,"ĠResource":12504,"Ġwhites":12505,"ĠDeclaration":12506,"kay":12507,"wind":12508,"ĠMemorial":12509,"velation":12510,"olith":12511,"ARS":12512,"Ġmankind":12513,"version":12514,"Ġdrew":12515,"mus":12516,"Ġradar":12517,"ĠImpact":12518,"ĠAnaly":12519,"Ġlabeled":12520,"ĠAfghanistan":12521,"Ġsymbolic":12522,"Ġmelting":12523,"Ġhate":12524,"Ġties":12525,"Ġundertaken":12526,"Ġsurvivors":12527,"Ġfloating":12528,"ĠIndiana":12529,"Ġcompression":12530,"Ġfoundations":12531,"ĠPublishing":12532,"Ġsor":12533,"yers":12534,"Ġfounding":12535,"Ġbrilliant":12536,"unciation":12537,"amma":12538,"Ġdemonstration":12539,"scill":12540,"Dis":12541,"Ġwast":12542,"ĠNorway":12543,"Ġbreakdown":12544,"mill":12545,"Ġattending":12546,"uma":12547,"ĠOm":12548,"Ġtrips":12549,"Ġpreference":12550,"Ġadvocate":12551,"arettes":12552,"Ġolive":12553,"ĠZe":12554,"ĠCreative":12555,"Ġexert":12556,"riends":12557,"ĠBob":12558,"Ġworried":12559,"Ġmaternal":12560,"resistant":12561,"Ġcows":12562,"amous":12563,"Ġillustrations":12564,"angular":12565,"Ġbes":12566,"Ġsho":12567,"oping":12568,"Ġimported":12569,"ĠPolitical":12570,"ĠSyndrome":12571,"Ġinquiry":12572,"ĠEN":12573,"Ġaltitude":12574,"Ġlesser":12575,"Ġresident":12576,"Ġ1976":12577,"Ġinputs":12578,"Ġunhealthy":12579,"Ġsoldier":12580,"Black":12581,"antine":12582,"Ġgeography":12583,"ĠHad":12584,"Ġ1973":12585,"Ġbicy":12586,"ilib":12587,"Par":12588,"Ġmines":12589,"ierce":12590,"ighters":12591,"Which":12592,"Ġobstacles":12593,"Ġink":12594,"Copyright":12595,"Ġnucleus":12596,"ĠNobel":12597,"ĠFA":12598,"Ġrailroad":12599,"ovenant":12600,"Ġinspire":12601,"Ġsocially":12602,"Ġslower":12603,"Ġoperates":12604,"Ġinvestigations":12605,"ĠPortuguese":12606,"ĠDak":12607,"Ġintestinal":12608,"mates":12609,"Ġworkforce":12610,"Ġbasin":12611,"Ġpromotion":12612,"Ġforgotten":12613,"Ġediting":12614,"Ġeligible":12615,"Ġcro":12616,"plane":12617,"ĠPhilip":12618,"ĠUC":12619,"Ġexams":12620,"Ġoffspring":12621,"Ġinformal":12622,"MD":12623,"Ġshifts":12624,"Ġbitter":12625,"Ġelevation":12626,"Ġbapt":12627,"ĠEffects":12628,"Ġdesirable":12629,"Ġsurviving":12630,"ĠHal":12631,"Ġdisciplines":12632,"Ġtwentieth":12633,"Cor":12634,"asted":12635,"Ġbike":12636,"Ġunpre":12637,"ĠHind":12638,"Ġbore":12639,"Ġsugars":12640,"Ġcups":12641,"test":12642,"Ġimplant":12643,"ulent":12644,"has":12645,"Ġplug":12646,"Ġtries":12647,"pers":12648,"ĠCert":12649,"urb":12650,"Ġaltogether":12651,"Ġinterval":12652,"arity":12653,"Ġpanic":12654,"energy":12655,"ashing":12656,"Ġmodify":12657,"Ġplastics":12658,"Ġexplanations":12659,"Ġ1944":12660,"Ġneurological":12661,"Ġsaturated":12662,"osures":12663,"iscal":12664,"ova":12665,"Ġtomb":12666,"Ġtodd":12667,"Ġslope":12668,"incial":12669,"Dec":12670,"Ġchamp":12671,"Ġloads":12672,"ĠCertain":12673,"Ġedited":12674,"Ġbreeds":12675,"Ġbanking":12676,"ĠBasic":12677,"Photo":12678,"esy":12679,"ĠCollection":12680,"person":12681,"iffs":12682,"Ġagreements":12683,"ĠBesides":12684,"ĠChen":12685,"rubs":12686,"Ġbats":12687,"vo":12688,"Ġpulse":12689,"fu":12690,"ĠArchives":12691,"Ġmelan":12692,"UD":12693,"Ġimpacted":12694,"Ġextracted":12695,"ĠSaturday":12696,"oin":12697,"Ġdelight":12698,"Ġmelt":12699,"rained":12700,"Ġadvocates":12701,"venue":12702,"cat":12703,"imity":12704,"ĠUsually":12705,"Ġfreshwater":12706,"Ġvariability":12707,"ropolitan":12708,"ĠLawrence":12709,"uate":12710,"rosis":12711,"Ġnausea":12712,"Ġtestim":12713,"Ġrelies":12714,"Ġlawn":12715,"Ġmodes":12716,"Ġfirstname":12717,"English":12718,"Ġgraphics":12719,"Ġwells":12720,"ĠCastle":12721,"Ġ1941":12722,"Ġhepatitis":12723,"Ben":12724,"ĠTok":12725,"Ġrebell":12726,"Ġozone":12727,"Ġsegments":12728,"Ġwounded":12729,"Know":12730,"Ġnegatively":12731,"Ġmicrobes":12732,"Ġevaluating":12733,"Ġscattered":12734,"fil":12735,"roups":12736,"Ġspite":12737,"Ġ1978":12738,"ĠSingapore":12739,"Ġintermediate":12740,"ĠRenaissance":12741,"Ġartifacts":12742,"erenn":12743,"ĠLie":12744,"Ġinval":12745,"Ġcontroversy":12746,"zens":12747,"Ġ2030":12748,"Ġdysfunction":12749,"ĠBot":12750,"Ġsword":12751,"ĠForeign":12752,"âĪĴ":12753,"olia":12754,"ĠSci":12755,"Ġteachings":12756,"ĠExecutive":12757,"Ġlining":12758,"Ġwires":12759,"otional":12760,"ĠPa":12761,"ĠPil":12762,"itzerland":12763,"ĠIssue":12764,"Ġlandscapes":12765,"ĠIowa":12766,"ĠBird":12767,"Ġfart":12768,"ĠVill":12769,"ĠGive":12770,"Ġmodules":12771,"Ġlegislative":12772,"intestinal":12773,"Ġpound":12774,"ĠConstant":12775,"Ġpronounced":12776,"Down":12777,"Ġworlds":12778,"olis":12779,"ĠTal":12780,"Ġlegitimate":12781,"Ġoccasions":12782,"Ġsurely":12783,"Ġreinforce":12784,"Ġlesions":12785,"icut":12786,"ĠWy":12787,"Ġjet":12788,"Ġplacement":12789,"Ġsurroundings":12790,"Di":12791,"Among":12792,"Ġcalculation":12793,"Ġreadings":12794,"Ġbriefly":12795,"Ġterrible":12796,"Ġunprecedented":12797,"âĢ¦.":12798,"Ġrating":12799,"ĠGames":12800,"ĠThings":12801,"Ġeliminated":12802,"itives":12803,"ĠBanglades":12804,"Ġimagery":12805,"Ġconcentrate":12806,"names":12807,"Sur":12808,"Ġindo":12809,"Ġinsufficient":12810,"klah":12811,"Her":12812,"ĠGro":12813,"rish":12814,"cription":12815,"ben":12816,"proof":12817,"Ġbridges":12818,"Ġsystemic":12819,"ĠWhit":12820,"ĠFacts":12821,"Ġvoluntary":12822,"Ġwetlands":12823,"Ġsensation":12824,"Ġaccommodate":12825,"ĠAdams":12826,"okes":12827,"Ġupset":12828,"Ġ1918":12829,"ĠMilitary":12830,"olutions":12831,"four":12832,"vas":12833,"Ġdepicted":12834,"Ġinterference":12835,"Ġgenerator":12836,"Ġscreens":12837,"matic":12838,"Ġcombustion":12839,"adic":12840,"regn":12841,"FC":12842,"Ġcarrier":12843,"Ġpositively":12844,"Ġreforms":12845,"ĠRa":12846,"Ġinterfere":12847,"Ġconfined":12848,"Ġdated":12849,"Ġtravels":12850,"ĠStrateg":12851,"Ġproclaim":12852,"Ġintact":12853,"Ġsnakes":12854,"Ġ57":12855,"Ġmedian":12856,"ĠSche":12857,"Ġnoble":12858,"ĠFem":12859,"Ġlighter":12860,"Ġcontinually":12861,"dam":12862,"ĠVeter":12863,"Ġneglect":12864,"()":12865,"isa":12866,"Ġperceive":12867,"Ġdivor":12868,"Ġremembered":12869,"Ġraces":12870,"Ġseparately":12871,"Ġrecur":12872,"Sometimes":12873,"Chapter":12874,"Ġcommander":12875,"powered":12876,"Ġdependence":12877,"Ġtoilet":12878,"ĠBall":12879,"Ġgrocer":12880,"ĠParticip":12881,"Ġimpaired":12882,"adays":12883,"ĠArchae":12884,"Ġtuber":12885,"Ġgang":12886,"dem":12887,"Ġsimilarly":12888,"Ġcultivation":12889,"Ġpermits":12890,"Ġcreature":12891,"Ġcrystal":12892,"ĠGP":12893,"ĠPH":12894,"Ġfundament":12895,"aughters":12896,"Ġcurrents":12897,"ĠVisual":12898,"ĠBBC":12899,"Several":12900,"ingham":12901,"lict":12902,"Ġtitles":12903,"Ġcertificate":12904,"Ġartic":12905,"Ġpneumonia":12906,"Ġinspection":12907,"Bo":12908,"Ġdeemed":12909,"ĠHTML":12910,"illery":12911,"Ġwool":12912,"ĠSri":12913,"pton":12914,"ĠAboriginal":12915,"Ġclosing":12916,"ĠJordan":12917,"ĠEarl":12918,"Ġpresidential":12919,"ĠTrib":12920,"BL":12921,"tically":12922,"ĠProtocol":12923,"Ġscrew":12924,"ods":12925,"Ġnewborn":12926,"alin":12927,"ĠTurkish":12928,"Ġtale":12929,"Ġweeds":12930,".(":12931,"igion":12932,"amel":12933,"Ġprovinces":12934,"ĠDemocr":12935,"Ġharmony":12936,"Ġbulbs":12937,"ĠFall":12938,"Ġdelayed":12939,"Ġdeclar":12940,"Ġbowl":12941,"ĠAlways":12942,"letal":12943,"Ġsimilarities":12944,"asia":12945,"Ġsilent":12946,"lied":12947,"Ġdedu":12948,"Ġpoultry":12949,"Ġ1942":12950,"Ġcement":12951,"Ġintric":12952,"Ġadmin":12953,"Ġstrictly":12954,"Ġthumb":12955,"Ġnotably":12956,"owed":12957,"Ġlenses":12958,"Ġpriests":12959,"Ġforb":12960,"Ġspont":12961,"bits":12962,"ucks":12963,"ĠChemistry":12964,"Ġdwell":12965,"Ġsynthes":12966,"Ġmodest":12967,"Ġcater":12968,"Ġseats":12969,"Ġoffset":12970,"Ġtruck":12971,"ollo":12972,"Ġintrig":12973,"Inter":12974,"Ġtherapist":12975,"ĠTorah":12976,"eton":12977,"THE":12978,"Ġenhancing":12979,"lementary":12980,"jan":12981,"Ġregistration":12982,"Ġactivists":12983,"novation":12984,"Sign":12985,"Ġpotent":12986,"eded":12987,"Ġretrie":12988,"ĠGame":12989,"Ġly":12990,"Ġ1965":12991,"adi":12992,"hal":12993,"Ġlets":12994,"Expl":12995,"Ġfits":12996,"Ġmarker":12997,"ixed":12998,"Europe":12999,"arp":13000,"Ġtablets":13001,"Ġjurisdiction":13002,"atherine":13003,"Ġgardening":13004,"Ġembrace":13005,"Ġveins":13006,"Ġwithdrawal":13007,"Ġinability":13008,"klahoma":13009,"Ġmast":13010,"Ġantioxidant":13011,"Ġevolve":13012,"ORD":13013,"Ġcrossed":13014,"ĠOd":13015,"Ġjournals":13016,"ĠHistoric":13017,"Ġeliminating":13018,"ĠPra":13019,"eman":13020,"ĠTerrit":13021,"Ġwarrant":13022,"Ġchecks":13023,"Ġtriggered":13024,"Ġindivid":13025,"ĠVirt":13026,"Ġrecru":13027,"eu":13028,"Ġrailway":13029,"Early":13030,"Ġrehabilitation":13031,"Ġexclusive":13032,"Ġinnovations":13033,"driven":13034,"ĠBox":13035,"Ġbanned":13036,"ĠSi":13037,"Ġfungus":13038,"Ġachievements":13039,"rehend":13040,"esteem":13041,"ocking":13042,"Ġsecular":13043,"ĠSant":13044,"Ġscrap":13045,"Common":13046,"Ġscarce":13047,"Ġstandardized":13048,"lies":13049,"Ġproc":13050,"Ġextinct":13051,"ĠKings":13052,"Ġecology":13053,"Ġstayed":13054,"Ġinvesting":13055,"Ġprobe":13056,"Ġvotes":13057,"Ġmosquitoes":13058,"lav":13059,"OV":13060,"arming":13061,"OUR":13062,"ĠGas":13063,"imb":13064,"pres":13065,"ugar":13066,"Ġ1971":13067,"otive":13068,"ĠLic":13069,"Ġemperor":13070,"Ġjuven":13071,"Ġ1969":13072,"ĠResults":13073,"Ġlateral":13074,"Des":13075,"Ġluck":13076,"ĠGreeks":13077,"Learning":13078,"Ġstir":13079,"ĠMuhammad":13080,"Ġglasses":13081,"his":13082,"Ġstrikes":13083,"Ġwounds":13084,"ĠMaria":13085,"opter":13086,"Ġpencil":13087,"Ġgrad":13088,"ĠDepending":13089,"Ġpointing":13090,"Ġexplicitly":13091,"ĠSound":13092,"Ġchemotherapy":13093,"km":13094,"Ġfreed":13095,"Ġappreciation":13096,"Ġdestructive":13097,"Ġautonomous":13098,"ĠRoss":13099,"Ġcoating":13100,"Ġ66":13101,"Ġstretching":13102,"Ġtet":13103,"tein":13104,"Ġcrafts":13105,"ĠSmart":13106,"Ġparasites":13107,"ĠImage":13108,"Ġempathy":13109,"Ġuncomm":13110,"ĠImperial":13111,"ĠPlanning":13112,"Ġpatches":13113,"Ġcoupled":13114,"Ġdescendants":13115,"ĠAustria":13116,"Ġpraise":13117,"Ġloaded":13118,"ĠPrimary":13119,"Ġodds":13120,"Ġgenerates":13121,"Mat":13122,"ĠLiterature":13123,"Add":13124,"Ġincorporating":13125,"ĠConn":13126,"Ġprosperity":13127,"Åį":13128,"Ġallev":13129,"ĠAra":13130,"ĠCru":13131,"ĠUSDA":13132,"Ġimpairment":13133,"Bet":13134,"Ġcharts":13135,"Ġprejud":13136,"ellar":13137,"Ġimpul":13138,"ĠCM":13139,"Ġsupportive":13140,"lude":13141,"ocate":13142,"ĠBerkeley":13143,"Ġgay":13144,"ĠSkills":13145,"ĠRadio":13146,"Ġretention":13147,"marks":13148,"third":13149,"reas":13150,"ambo":13151,"Ju":13152,"bial":13153,"pose":13154,"Har":13155,"ĠGPS":13156,"Ġconsolid":13157,"ĠRap":13158,"count":13159,"ĠCountry":13160,"Ġjoining":13161,"Ġextensively":13162,"Ġtoll":13163,"ĠCro":13164,"ĠUpper":13165,"ĠUkraine":13166,"Ġaccordingly":13167,"Ġcritics":13168,"ĠStanford":13169,"Ġillum":13170,"Ġdamp":13171,"ĠPediatric":13172,"Ġidentifies":13173,"uncture":13174,"rones":13175,"Ġcomprised":13176,"ĠPersonal":13177,"Ġruler":13178,"Ġstatue":13179,"Ġnurt":13180,"Ġyog":13181,"Cent":13182,"Ġutilizing":13183,"uated":13184,"Ġuncons":13185,"Food":13186,"Ġgallons":13187,"ĠRain":13188,"ĠBrook":13189,"Ġ1964":13190,"Ġstrip":13191,"Ġbillions":13192,"Ġintens":13193,"ĠVery":13194,"Ġseas":13195,"ĠÙ":13196,"Ġactivated":13197,"heum":13198,"Ġwarned":13199,"ĠAqu":13200,"Ġdelicate":13201,"Ġdivisions":13202,"ĠIsraeli":13203,"perature":13204,"Remember":13205,"Ġsucc":13206,"Ġemployer":13207,"ĠDiseases":13208,"Ġoutstanding":13209,"Ġbehave":13210,"ĠNigeria":13211,"mind":13212,"Ġsink":13213,"Ġdispute":13214,"ĠMaine":13215,"esthes":13216,"stable":13217,"ĠHou":13218,"Ġunderm":13219,"Ġautumn":13220,"Ġlux":13221,"Ġsurgeon":13222,"ĠWas":13223,"ĠToronto":13224,"uy":13225,"Ġretained":13226,"avy":13227,"Ġ110":13228,"Ġpumps":13229,"ilibrium":13230,"ĠIC":13231,"ĠYouth":13232,"Ġfired":13233,"Ġburial":13234,"acerb":13235,"Ġblocked":13236,"Ġtitled":13237,"Ġfusion":13238,"Ġmechanics":13239,"Ġdownt":13240,"aron":13241,"ĠAgricultural":13242,"Ġmicrobi":13243,"ometric":13244,"PC":13245,"bird":13246,"dy":13247,"phen":13248,"report":13249,"Sch":13250,"ĠPerson":13251,"ĠInitiative":13252,"Ġlasted":13253,"Ġ1974":13254,"Ġworms":13255,"Ġdirectory":13256,"Ġventilation":13257,"ĠSummer":13258,"Ġenrich":13259,"ĠExcel":13260,"Ġremedy":13261,"Ġcous":13262,"Ġgrab":13263,"Ġ700":13264,"oz":13265,"Ġquot":13266,"ership":13267,"Ġtransaction":13268,"aman":13269,"ĠSwitzerland":13270,"ennis":13271,"ĠAuthority":13272,"Ġalgebra":13273,"ĠAlf":13274,"tr":13275,"Ġate":13276,"Ġappliances":13277,"Ġtransported":13278,"ĠED":13279,"IO":13280,"raul":13281,"Ġrum":13282,"Ġcitizenship":13283,"Ġrefined":13284,"Ġsends":13285,"Ġuncomfort":13286,"Ġguilty":13287,"Good":13288,"rob":13289,"second":13290,"ĠDeb":13291,"Ġjack":13292,"Hel":13293,"Ġlegally":13294,"Following":13295,"wealth":13296,"ĠCL":13297,"ĠBuild":13298,"kg":13299,"Ġoutbreaks":13300,"ocytes":13301,"Ġ1967":13302,"Ġcollaps":13303,"Ġdamages":13304,"Ġgrasp":13305,"Ġsake":13306,"June":13307,"Ġtrapped":13308,"ĠStaff":13309,"Ġbod":13310,"Ġpeas":13311,"Ġacknowledged":13312,"Ġlongest":13313,"ĠCass":13314,"nee":13315,"Ġconsiders":13316,"ĠArmen":13317,"ĠRegional":13318,"Ġcompeting":13319,"ĠParkinson":13320,"March":13321,"ĠJoh":13322,"autions":13323,"zech":13324,"Ġstrat":13325,"Ġnaval":13326,"Ġflowering":13327,"aran":13328,"Act":13329,"chi":13330,"Ġdisse":13331,"Ġ58":13332,"ĠGenerally":13333,"onduct":13334,"Ġstruggles":13335,"Ġimmers":13336,"Ġrevised":13337,"ĠFinancial":13338,"itar":13339,"GA":13340,"Ġdisplace":13341,"Ġbrut":13342,"Ġ130":13343,"Sym":13344,"bone":13345,"adian":13346,"Ġlayout":13347,"pin":13348,"Ġweed":13349,"ĠTour":13350,"dig":13351,"1016":13352,"Ġcock":13353,"orical":13354,"ĠPV":13355,"Understanding":13356,"threat":13357,"log":13358,"ĠBegin":13359,"Tube":13360,"Check":13361,"Ġseaf":13362,"Ġvulnerability":13363,"Green":13364,"Ġfossils":13365,"lux":13366,"Ġtrains":13367,"Ġmonetary":13368,"Ġactivation":13369,"Ġank":13370,"Ġtransit":13371,"Ġalkal":13372,"ĠCollect":13373,"Ġjudges":13374,"Science":13375,"Ġbip":13376,"system":13377,"Ġdeployed":13378,"Ġgently":13379,"ĠGenesis":13380,"rots":13381,"Ġtoxicity":13382,"ĠMachine":13383,"Ġcel":13384,"Ġvic":13385,"Ġ1939":13386,"Net":13387,"Ġsour":13388,"ĠFollow":13389,"erto":13390,"Ġthreatening":13391,"ocur":13392,"Ġ||":13393,"Ġcritically":13394,"ĠIL":13395,"Ġinstructor":13396,"Vis":13397,"Ġfloods":13398,"Ġdos":13399,"Ġpacked":13400,"Ġgel":13401,"hematic":13402,"ĠChoose":13403,"obacter":13404,"oriented":13405,"Ġinvisible":13406,"Ġdump":13407,"Ġharvesting":13408,"Ġsilicon":13409,"Ġports":13410,"Ġrolling":13411,"Ġelectromagnetic":13412,"ĠAy":13413,"Ġpaste":13414,"Ġadjusted":13415,"process":13416,"Ġoutlined":13417,"lip":13418,"Ġwitnessed":13419,"ĠCredit":13420,"Ġorth":13421,"Ġpotato":13422,"Whether":13423,"dec":13424,"Ġvalued":13425,"iper":13426,"Ġcervical":13427,"redict":13428,"ĠStress":13429,"lihood":13430,"Ġcram":13431,"ĠCuba":13432,"prot":13433,"ĠPict":13434,"arbon":13435,"ensing":13436,"izoph":13437,"agu":13438,"Ġsubjected":13439,"Yet":13440,"Ġearthquakes":13441,"Ġpour":13442,"eps":13443,"AND":13444,"ijuana":13445,"SE":13446,"inar":13447,"usions":13448,"ĠAccessed":13449,"Ġcultivated":13450,"Ġmant":13451,"Ġconception":13452,"Ġ1948":13453,"Ġcharging":13454,"Ġuntreated":13455,"aga":13456,"Ġdesper":13457,"Ġalleg":13458,"ĠMalays":13459,"Unfortunately":13460,"Ġtraces":13461,"ĠSimon":13462,"wid":13463,"ĠBroad":13464,"estab":13465,"ĠMIT":13466,"htm":13467,"ĠBrad":13468,"Ġdiesel":13469,"Ġinventory":13470,"Ġfactories":13471,"ĠAnton":13472,"Ġcoh":13473,"Ġincentives":13474,"sim":13475,"Ġsomehow":13476,"Ġants":13477,"Ġdrilling":13478,"Ġmitigate":13479,"Ġberries":13480,"Ġintercon":13481,"ethyl":13482,"Ġemphasize":13483,"arches":13484,"Ġcompromise":13485,"ĠHun":13486,"articles":13487,"Ġhungry":13488,"Ġeternal":13489,"opor":13490,"Ġasbestos":13491,"ĠEV":13492,"Ġ97":13493,"Ġdelivering":13494,"Ġinserted":13495,"rophy":13496,"ĠCopyright":13497,"Ġindividually":13498,"Ġwatering":13499,"source":13500,"ĠLanc":13501,"Ġexacerb":13502,"Ġterrain":13503,"Ġrestaurants":13504,"Ġpassages":13505,"Ġeconomically":13506,"Ġwarfare":13507,"Ġsanct":13508,"ĠOklahoma":13509,"Ġexploitation":13510,"Ġwatched":13511,"Ġ1977":13512,"ĠPatrick":13513,"food":13514,"ĠSoutheast":13515,"ĠBenjamin":13516,"dered":13517,"Ġbinary":13518,"ĠAnti":13519,"ĠCommer":13520,"unes":13521,"ĠAlb":13522,"ello":13523,"Ġinstinct":13524,"Ġbench":13525,"ĠProtestant":13526,"Ġposture":13527,"Ġfriction":13528,"path":13529,"Ġharness":13530,"ĠBeng":13531,"Ġexamines":13532,"Ġregards":13533,"Ġinfest":13534,"Ġpyram":13535,"Ġworksheet":13536,"Ġhoped":13537,"Ġmyths":13538,"Ġuncommon":13539,"Ġmaintains":13540,"itime":13541,"Ġpromises":13542,"Ġsettlements":13543,"Ġbaseline":13544,"Out":13545,"ĠKit":13546,"ĠTB":13547,"Ġtomatoes":13548,"Ġabdomen":13549,"Ġmicrobial":13550,"Ġmillenn":13551,"ĠMaybe":13552,"Ġpole":13553,"ĠWolf":13554,"imore":13555,"Ġinevitable":13556,"Ġdissolved":13557,"Ġwatershed":13558,"Ġdisappeared":13559,"Ġmunicipal":13560,"child":13561,"Ġdiamond":13562,"Ġcentres":13563,"reach":13564,"Fe":13565,"ĠStock":13566,"2018":13567,"Ġrecipe":13568,"izophren":13569,"ĠSC":13570,"Ġlinguistic":13571,"bound":13572,"Ġcountless":13573,"bled":13574,"Ġshooting":13575,"Ġranks":13576,"Ġtranscript":13577,"Ġunsu":13578,"nut":13579,"Ġspirits":13580,"Ġinstructional":13581,"Ġsixth":13582,"Ġbesides":13583,"Ġphon":13584,"tw":13585,"Af":13586,"Ġnasal":13587,"Ġsoda":13588,"Ġtears":13589,"ĠAlliance":13590,"nty":13591,"ĠBeach":13592,"site":13593,"ĠTogether":13594,"Ġtemples":13595,"Ġenroll":13596,"Ġgasoline":13597,"Ġ1914":13598,"Ġbon":13599,"Sept":13600,"rost":13601,"Ġconsec":13602,"ĠBangladesh":13603,"Ġplanes":13604,"Ġdrying":13605,"uz":13606,"ulatory":13607,"Ġfailing":13608,"Ġwastewater":13609,"Ġmonaster":13610,"adows":13611,"ĠRoc":13612,"ĠAnderson":13613,"Ġcruel":13614,"ĠCapital":13615,"ĠAF":13616,"idel":13617,"ĠAllen":13618,"depth":13619,"ierra":13620,"stan":13621,"Feb":13622,"Ġshells":13623,"sues":13624,"Ġrival":13625,"Ġamph":13626,"ancies":13627,"Ġtourists":13628,"Ġclinic":13629,"coma":13630,"ĠBasin":13631,"Time":13632,"imination":13633,"Ġconform":13634,"ĠConserv":13635,"Ġrecipes":13636,"Ġwellbeing":13637,"wich":13638,"Ġ62":13639,"ĠFat":13640,"itches":13641,"oscow":13642,"Ġriding":13643,"ĠNurs":13644,"Ġepisodes":13645,"Ġinfo":13646,"ppers":13647,"Ġrecognised":13648,"vitational":13649,"ĠCust":13650,"Free":13651,"ĠSyd":13652,"Ġarom":13653,"Ġprototype":13654,"Ġmatching":13655,"ĠEaster":13656,"building":13657,"ĠKal":13658,"Ġframes":13659,"Ġaug":13660,"Ġuncomfortable":13661,"Ġdesigner":13662,"Ġfolks":13663,"Ġvoy":13664,"ĠDog":13665,"Ġenerg":13666,"Ġstocks":13667,"Ġwheels":13668,"Ġdisabled":13669,"ĠCab":13670,"ĠOrthodox":13671,"ĠEconomics":13672,"Ġprediction":13673,"Ġpurely":13674,"ĠEat":13675,"Ġfailures":13676,"ĠHans":13677,"Ġconsistency":13678,"Ġintim":13679,"ĠSwedish":13680,"Ġsuppress":13681,"home":13682,"Ġprimitive":13683,"Ġattribute":13684,"ĠMechan":13685,"Ġurgent":13686,"Ġattachment":13687,"ili":13688,"month":13689,"ĠConnecticut":13690,"Ġtraumatic":13691,"ĠVideo":13692,"Ġstrengthening":13693,"ĠGi":13694,"ĠDouglas":13695,"Ġprelim":13696,"ĠHamilton":13697,"Ġbloom":13698,"Ġafterwards":13699,"ĠLes":13700,"Start":13701,"Ġoun":13702,"Ġquestionna":13703,"Ġrequested":13704,"ĠAlong":13705,"Ġinvestigating":13706,"Ġopio":13707,"Social":13708,"ĠConsequently":13709,"rea":13710,"Ġindoors":13711,"arette":13712,"Ġanxious":13713,"Ġstamp":13714,"ĠCoal":13715,"Ġsulfur":13716,"ĠBishop":13717,"Ġpiano":13718,"Ġisot":13719,"Ġconnects":13720,"irk":13721,"Ġobtaining":13722,"Ġremedies":13723,"Ġstrings":13724,"ĠMathematics":13725,"April":13726,"uters":13727,"ĠWinter":13728,"ceedings":13729,"Ġeco":13730,"pub":13731,"pler":13732,"ighting":13733,"Ġgluten":13734,"TO":13735,"ĠPrior":13736,"Ġillustrates":13737,"Ġstain":13738,"Ġrhet":13739,"oglob":13740,"rative":13741,"plicit":13742,"Ġfans":13743,"Ġmicroscope":13744,"ĠCompar":13745,"Ġoak":13746,"Ġcrystals":13747,"acity":13748,"Ġram":13749,"ogenesis":13750,"uliar":13751,"Ġhub":13752,"Ġturtles":13753,"ysics":13754,"Ġsolved":13755,"Ġhes":13756,"Ġpassenger":13757,"Ġhasn":13758,"Ġforcing":13759,"Ġpriorities":13760,"Ġintestine":13761,"ĠAward":13762,"ĠDraw":13763,"Ġproblematic":13764,"urities":13765,"ĠDate":13766,"Ġcompiled":13767,"Ġsufficiently":13768,"Ġrept":13769,"Ġexceptional":13770,"Ġmitochond":13771,"Ġunconscious":13772,"Ġobligations":13773,"Ġrash":13774,"ĠRegular":13775,"Ġfool":13776,"ĠAnth":13777,"tech":13778,"ĠNewton":13779,"Ġpublishing":13780,"Ġelectroly":13781,"Ġquoted":13782,"Ġnegotiations":13783,"Does":13784,"ĠTravel":13785,"ania":13786,"Ġwalked":13787,"ignty":13788,"Ġlikes":13789,"Ġschemes":13790,"ĠYe":13791,"Ġliber":13792,"Ġ1917":13793,"Ġsequencing":13794,"Ġplural":13795,"Ġresolved":13796,"Ġseam":13797,"ĠTech":13798,"Ġoct":13799,"Having":13800,"herence":13801,"Ġtraff":13802,"pack":13803,"Ġarrangements":13804,"Ġpreliminary":13805,"MM":13806,"ĠPast":13807,"erk":13808,"Ġportable":13809,"race":13810,"sight":13811,"otle":13812,"Ġtroubles":13813,"Ġwhale":13814,"Ġdozens":13815,"week":13816,"Ġdignity":13817,"Ġclarity":13818,"owing":13819,"Ġpublish":13820,"onut":13821,"Ġbiblical":13822,"Ġapples":13823,"Ġperceptions":13824,"ĠWright":13825,"ĠPs":13826,"ricular":13827,"Ġburns":13828,"ĠMagazine":13829,"Ġ63":13830,"Ġ59":13831,"Ġdrill":13832,"Ġunderwater":13833,"Ġmobil":13834,"Ġmodifications":13835,"ifiers":13836,"Ġrip":13837,"PE":13838,"ĠFle":13839,"Ġtemporal":13840,"piece":13841,"aza":13842,"Fi":13843,"Ġappropriately":13844,"bes":13845,"Life":13846,"Ġorch":13847,"Ġlectures":13848,"Ġunited":13849,"Ġclot":13850,"Ġdraws":13851,"ante":13852,"ĠSel":13853,"Ġcuriosity":13854,"Ġalignment":13855,"ĠMas":13856,"Ġjewel":13857,"Ġsubstrate":13858,"Ġsilk":13859,"axis":13860,"Ġdemanding":13861,"ĠBelow":13862,"Ġpreserving":13863,"ĠSong":13864,"ĠNev":13865,"Ġdot":13866,"Ġexcluded":13867,"Ġhob":13868,"Ġbug":13869,"Ġ68":13870,"ĠRE":13871,"Ġpursuit":13872,"ĠNC":13873,"Ġsins":13874,"ige":13875,"Ġjun":13876,"Ġunwanted":13877,"thy":13878,"Ġhandful":13879,"Ġacidic":13880,"Ġaggression":13881,"Ġpressing":13882,"Ġperipheral":13883,"ĠUniverse":13884,"may":13885,"ĠKind":13886,"ĠImmun":13887,"orse":13888,"Ġheading":13889,"Ġgoddess":13890,"2020":13891,"ĠSydney":13892,"Ġcounterparts":13893,"lan":13894,"Ġlowering":13895,"ĠDiagn":13896,"roximately":13897,"Ġrecommendation":13898,"ĠMeanwhile":13899,"Ġteenagers":13900,"uning":13901,"Ġtranslate":13902,"150":13903,"ĠDick":13904,"Ġastronomers":13905,"imental":13906,"Ġstopping":13907,"ĠDisorder":13908,"Ġdwarf":13909,"artz":13910,"Ġpresentations":13911,"inging":13912,"aunt":13913,"Ġsecured":13914,"pher":13915,"Ġmetall":13916,"atics":13917,"ĠRegion":13918,"Ġincom":13919,"Ġseizures":13920,"Ġana":13921,"ĠBed":13922,"aux":13923,"Ġeager":13924,"Ġlitter":13925,"Ġsmile":13926,"Ġelaborate":13927,"Ġ]":13928,"ĠRos":13929,"Ġvariants":13930,"SM":13931,"ĠCE":13932,"Ġpermanently":13933,"ĠLakes":13934,"Ġfeathers":13935,"Ret":13936,"ĠDal":13937,"fram":13938,"Ġorganizational":13939,"Ġsimulations":13940,"group":13941,"ardo":13942,"Ġmaximize":13943,"Ġ1963":13944,"pop":13945,"Ġtutorial":13946,"ĠPhilosophy":13947,"%),":13948,"Ġreproduce":13949,"Ġurinary":13950,"ĠActivity":13951,"Ġsatisfied":13952,"Ġcortex":13953,"Ġapproaching":13954,"Ġunions":13955,"ipt":13956,
[...]
